BD2E6C6F
BD26FDA6
3CF81C9C
BD226159
3D70C85D
BDA8A361
BDB6E9A2
3D7DDBCE
3DAC9790
BDB0AA84
BDB9EE79
BD177F5B
3D1C89A9
3DEDCC06
BBDB99C4
BDA717A0
BD6DECAA
3C3BE310
3DB492C2
3D834CE0
3D82408E
BD955C85
3D83A21D
3DFA5543
BD56549B
BC684B2D
BC8FD41E
BD4C704E
BE2361DA
3DCC7230
3D9F830F
BDB94DF1
BD80416D
BD915E4F
BE1BF5B9
3D6B6FD8
BC26A729
3D69A873
3D213044
BDCF8E89
BDB19B65
3BBE637D
BACC7940
3C486CC1
BD5F75E4
BDD39E63
BD88E9F0
BE01BD3A
3D215403
3D108A54
BCA018AA
3E01F8A1
3DB2810D
BD51AA62
3D8A3B4E
BDCEE5A0
3D659342
BC9373AB
3D9D1F6F
3A02F18C
3DA783C0
3D3CE01B
BD4807DC
BD9C02E7
3D1C55D9
3C3378A8
BD49CB58
BD911F61
3DE148CD
BCF3E51A
BCA06C82
3E24C0F6
BAFF1F04
3B8975E0
BDC79498
3D6796E0
BD3DF70C
3D09FE3E
BD7F3EEA
3D3CFBA4
3D54260D
3D0EC324
BB42D1F7
3C22D0DB
BE03B16B
3DE50E91
BC746F1D
3B4D2FF4
BD5A1FE7
3DC23520
3DB9DB2A
BDF80905
3D82A117
BD1DFFD3
BD89914E
3DFE26D6
3D13F444
3E0C160A
BC37DB84
3D63E63C
BD0A51A3
3D15D707
3E379F41
BD2ECB37
3DC76BCF
3E0527B5
BB117406
3E3B65B0
3E2EA3C5
3D983679
3E205701
3DD0D1A0
BD607CC2
BC5717F5
3D1114BD
BD5CADBB
3D51DA70
BD599423
3E0F2AA3
BD452F5F
BE2ADAC2
BD7DB057
BE14DD93
3DB2DBD5
3C8F817D
3DC87821
3D44A2A7
BDEDD121
BD3D96CA
3E2AB2BF
3D851A99
BE090A3E
BC25B9F9
BC548D00
3D34D8EB
3D9524FF
BE330611
BD5D8915
3DD9A87C
BE0DAFB4
BDB8404B
3D73A081
3DEAAD54
3CCEF628
BDB33099
BACD63CC
BCC6582E
BC2CF765
3BD18A36
3DAB6B4B
3D0EC5F1
3DB23EAF
3C342211
3D38BD3E
BDA8B068
3DFCB49C
BD13FCAA
BDB2B80B
BD453534
BD3E775C
3DB3077B
3D98697D
BCB29FD5
3CF152CE
BE0A1FA1
BDECF8BE
BDDE54A8
3E31BABA
BD860BD4
3D71EBAD
3CD9627D
3D7C0F65
BD21B08C
3E00DDAE
BCD993E5
BB723C9E
BC62E8EE
BD86019F
BCBB84E6
BE05B051
3CC58281
3E2CD2E8
BC96F773
BD1F3496
3DC733E5
BC9DFD67
3E2B725C
BD904B82
3E1DC9D5
BD30B804
3CFA9750
3DF66496
BD7E96E7
3CE688B0
3DAF3C72
BC9ADFA5
3D9C2B37
3C8E0C78
3D36E9CC
3CF0CEB5
BD111A95
3E198141
3D30F6BE
BCA733F1
3DEE59E5
BBBE8623
3D771583
BD33C33E
BCDB97A1
BD595CD8
3D354933
3A5C5FBD
BD94F86A
3D4F9915
3926BE9B
3D39AAC7
3C943135
BD179169
3D6DE01D
3DB818FD
3DA9AA00
3BA14143
BDFA42B2
3D88DD9C
3DDC6235
3DA65921
3E0CBFDB
BD18ED34
3BBC4164
3BE2EDE1
3D97316C
BDB67833
BD29F567
BE07F12A
3B1BDA92
3D898AD5
BD597031
3C3A57F5
BDCF4A8D
3D12E25E
3DF78A48
BDCAE20D
BD82E5B0
3E01F847
BD13AE35
3D455E1B
BD8F79C6
3DE8F448
BDA60E82
3BDC45D1
BD11B55F
3D12C5E5
3D8BA857
3D19FE49
BC66CFF8
3DA03F28
BD4574A7
BD861415
BD562165
3DE04AB5
BE0F991A
BDE4B02A
3B95943C
3CD2C519
BDB05ABD
BDB39B95
BDEFEA9C
3DE9FC12
BE09DCE5
BCA9EB81
BDADFD29
3BC940FC
BCD41C5D
3D79A9AA
BDF79FF7
3BE03D17
BD6EBCEF
3E00904D
BD41A6E7
3E147BE8
3CB8637E
BD8AB847
3DE2091F
BB278B75
3E021755
3CC34EFF
3DAA15E5
BC07B58C
3E11C736
3E1CAE58
3E0D4D76
3E366316
BD50B6A9
3DF0346C
3E234F16
BD536D53
3BE7A0E4
3D961A7E
3C5FE79C
3D530E70
3CED455E
3C001F35
3CE0148D
BB2C19CF
BD980B14
3D040243
3D970A6E
3C502BBC
3E3006B9
BD60AB13
BDD3AE09
3C49D9F3
3DAF862D
3D760121
3D7C6010
BDD07FAA
BD9E8C7B
3D72054E
BDA00FD8
3D3B2CAF
BDCFC57F
3CF0C021
BDB5117E
BD0DF47A
3DA40667
BE026C22
3D0CD4E2
BDC7DF8F
3CC5D785
3D56BFFE
BD0629E3
BDF51A2F
BDD388CE
3DC7E108
BD4F8B03
3CFCD477
BD81D6A1
3D39D0CC
BCC712E4
BDF9F04F
BD21C169
3C8DA80F
3D8FCF59
3D0CEDDF
3E112D5D
BCBD40EE
BDB49A99
3C10CA53
BE072010
BE198ED9
3D1505B9
BD960ED4
3C8BDB0A
BC6AC317
BD491329
BCAB5264
BE35D8C3
3DE2D53B
BBE1E7A7
3D766989
BE0BBBE2
BCDAEBA9
3D3410B4
3DD9B78D
BD95D3A1
BD8A4358
3CB6B209
BE280388
3DFBA0E2
BC9FF6E1
3D78C6C9
3D2CBA56
3CB24831
3DEDF29B
3D2E30D0
3C3AC3F6
3E0149F8
3E230707
3E1AE24B
BC7806CD
BD580B6F
BBC151DA
BC1AC7F8
3DF6D00B
3C4D7D97
BD6F3466
3D497B06
BD52129F
BCB519D3
3E011249
3DED514A
BD9A8DC1
3AC56047
BD6C2C64
3DA9FA20
BABC9979
BDAE174E
BC125B57
BC5E7A9F
BD5FBBCD
BD913CB9
3DA14748
3D14D5C0
BDFC1A17
BC53013A
BD42D1C7
BE10C9E3
BD653AED
3E06C8FE
BCD3ADC7
3E08ED5A
3E054D70
3D8F3A8B
BD03419C
BAB2F184
3D173E15
3DA8E865
3C0518EF
BD94046D
BD898FCE
3CDFB32E
BCDF1BFA
3D292ED8
3D4E5E4F
BCC799FD
3D2CEEEC
BD0E88CA
3D70D9F8
BE046CA5
BDC2150A
3D0BA8D0
3D712D19
BD84F15E
BD617924
3E157741
3D8DB75F
3D6A6D5F
3D12394B
3DE7FF8F
3D47B487
BD87A5CF
3BD8D6DC
3C4298E2
3E0F0E15
3CCD7EF4
BDBA972F
BBE48591
BD31F632
BC22C8CD
BD75FCE7
3D3F686E
BDAAAAC2
BDE1723E
3D16F692
BB9BD4DD
BD20339F
3DA89287
3DA341C2
3CF62093
3BB938C6
3DB23715
3D2C7EE7
BDE62A09
BDA37415
BD8FB25E
BCB92FED
BDC457BA
3DC71005
BD366885
3CF985A8
BDDC0102
BDE8B85A
BD1DDDA4
3C5C60BF
BD87C5F2
3DCD81B6
3D9D7B8C
BDF09245
3CD8370E
3D480413
3CB02DE5
3DBEB13A
BDD2AD02
BD81E3AD
BDC0204E
BC7F97F0
3D806859
BD3A890E
3DE6AF72
3E2DEEB6
3DBA5896
BDBF955C
3D862C58
BE0AD826
3D68E646
3D3E9397
BDD3162D
BE03BFCE
BAFB8547
3DABA857
3D40705B
3D730B4D
BD645057
BDA1DE48
3D224562
3D9C4EFA
3D665394
3DDB137E
3CCA8C96
3DDF3568
3CDC3E90
3D8BD92E
BDD770CD
BBC82BFE
395768B2
BD3D4540
BC04703D
3D900B0F
BDC97991
3C0B7681
3CF1F1FB
3D4CE78A
BD6BD378
3D798034
3CAB9260
BD90EE33
BD4DAA68
BDB59B5F
BDE9EC85
3DB00D93
3D8C59EF
BD161C5C
BDE8FEA3
BD42EE97
3DBCF95F
3A8AE5A2
BD922B20
3DAADAD9
3C6E7F04
3E0DC52B
3DDF93D3
3D995F67
3CC1D903
BDC4FEF8
3DBD36A9
3DD600A4
3DA5829D
BBC41DD2
BDAE78DC
3D196FB0
BE0CCD96
3CB011F1
3DBA762A
BD931F0B
BDB33BB2
BDD4DBB5
3D822186
3DC089A1
BCD54282
BE042A44
BB36586C
3DB23B39
BDF55162
3C27E582
BCA0FDA7
BD422849
BE0A0036
3DA3BC9B
BE06B93B
BD8AE99C
BDA3642E
BD5C3E57
BD0A5650
BD17E2FE
BDED35A2
BD51D0E8
3D09ADE9
3E0A09EA
3DBA8260
BDA4188B
3DE52D94
BD266C9E
3DD3C81E
BC265620
BC694D97
BE0DA8A1
3C99C8C9
BD898417
3DE83F78
BD2B0445
BC340A33
BD28FDC8
3C1C82C3
BB932D03
BD03A6E4
BDC0722B
3D30DBDB
3DEA2BCC
3E1F9CB1
3D5180D9
3D305EC3
3DC19AF3
3D43506F
3E1E2915
BDB3A01C
BDBE6604
BDD463EF
BCAD9DB8
BE20988B
BD77F156
BD0D4B22
BB78C955
BD948AB3
BBDB9801
3CA3BBA1
3C3052A3
BD9CAFA6
3DFD2A07
BD807B7A
BDBC1B95
BD206208
3D8F4512
BD8D412A
BD28DAD8
BD42F065
3DC52ECF
3D9159C1
BDC270FA
3C30FCA2
BDB054CC
3D94B7E2
3C8212AA
3DFFCA77
3D7D01D6
3C54F565
3D69CF9D
BDA58260
3C879A43
3D78AB75
3D666E67
BDABED13
3E01AA31
BD1B7DF5
3D4B777A
3E1E69C3
3E13014E
3E1EB837
3DCEA0C8
3E23DF66
3E145F0C
BD0D250F
3CE386A8
3E0FFC03
3C0B615D
3E061F51
3DD4C5D9
3E0E16BA
3D23780A
3DC552B8
3D86DE63
3E23D308
BD3BCC6A
BBDC4E1F
3D9ACC92
3DB6C373
3C3A6618
3DB457B9
3CC1A42F
3E10353C
BCB03796
3D6B66D1
3E019D63
BE2DA9FF
BD3E47B4
BE45F142
3DC3BCBD
3D5B8707
3C8B0166
BD957924
BDF26CBC
3E30CADD
3E04EA77
BD43A9BE
3B3889F5
BD08E9A6
BDCFAB71
3DFA4C0D
3DC1B639
BE178569
BE284F6C
3D339249
BE07B417
BE470C22
BDCEA6F1
BDD93463
3DAC7883
BD25D1E4
BDC09851
3DE6DAE4
BC4B99D2
BE45860D
3DFC9F9D
3D777999
3C998A3A
3D3BBDFF
BD3326C6
3DE145A5
3E0BB0F5
3E40240A
3D6EFE3B
3CE0B08A
3CC5AC82
3DCDF6AA
BE540FD4
3E2C7D66
3E31E7DE
BD864F60
BC3C8597
BE3A216C
3E0CB3C9
BDCE6D28
3C0E79CB
3CD7DF7A
BC43BDBA
3D3CBA05
BD3C5D10
BC908A7C
3D9CCF6F
BE3FA9C4
3D820739
BCC120E7
BC9A1911
3AE42FEB
3E4145BE
3DC6F85E
3CA30076
3DB78A2D
3DF6D603
BDA67FE1
3DC194B5
3CA33173
3E300ADD
3D69869F
3E240E0D
3CB3EAC9
3D53F1E0
3C27C063
3CC73DB2
BC91A9D1
BD886130
3C870D55
3D898FC0
3E1D747A
3D85344D
BC51308A
3DB009B0
BC6A1FA4
BCF1778C
3DAC89DB
3DAD1602
3D0FB4B9
BD1E43C0
BDD113CF
3DDD523F
BDB402CF
BDB28A6A
BD38D323
BCBBC055
BD832FBB
BE11C0A7
BDD6A473
BDA838D0
3D9A64D3
3DB3D705
3DBF9E3A
BD24507F
3DC4CAB3
BCC8372C
3C141D99
3E060C3B
BD0D7A57
BE00D801
3E186E69
BCF0C991
BE0AAEC7
BD71D6A2
BD2AB4D2
BDA1EB98
BD20597A
BAB3B87F
3D05989E
BE00B0EC
3D564734
3D07E3EF
3BB6E585
3D1BD95D
BE1EBB35
BD8BF052
BC41A780
BD612597
BD5F0369
3C03FBB8
BC9C30B3
BDD316BD
BDB9EDA3
3CBB4E95
3DA26E71
3C5698FE
BC498C91
BC64EDAB
BC7E7A0E
3E07ADF6
BE014692
BD97282B
BCFAE168
BD8DF216
3D27BC27
3DDFB3A9
BDEF7222
3DC60B10
BDB89D9E
3D3CDE38
3CEC4C8F
BDA8BFD0
BD3CFE05
3CBEB04F
BC0904A1
3D91CAE3
3E247758
BCCB5B78
BC6EA5DB
3E2AF735
3DCB24EA
3D26C905
BD324354
BCE90278
3DA781AA
BD8F3E97
BD86D5DC
3E08341C
BD67A985
BD74E24D
3DD4BC44
3BE8DCA3
3D617830
3DFC70F7
BBF56821
3D62E4DA
3D6D1E39
3DB8E1FB
3D08EA57
BCD0795F
3C485FAB
BD52672B
3DA09A2D
3E0C38D2
BD64F4E4
3C6DA738
BE04ECD5
3D14006B
3C722460
BCBC4AF4
BD43D21F
BDF537E9
3E12FE68
BD7F6F82
3D5F8383
3D8A48E9
3A65212C
BE28357F
3CBE27EE
3DBF5D4C
3DA1885A
BDC9D9EA
3D008DB2
BE00964E
BD40560C
BDCD1CC0
BD147ACE
BE0A33B3
3D9730C1
BD758332
3DE6663B
3DE62963
3DF6D292
BD9C5E13
BD6E5880
3D2DDDE7
3DC84AE4
3D27527F
BD0024E1
3CEA2B92
3D1AB6FE
BE100D84
3DBFAF82
BDCF8C65
BDBB973F
BDF535B7
3D0E6D06
3DAE525E
3D9241CF
3DA98A2C
3D50FC57
BD9A4B06
3D2D8646
3D1930F4
3D756ED2
BD70C491
BE47D29E
BC0B0354
BDF17404
BD9F7F14
BDA31F44
BD2E5EB5
3DD96473
3D7A3D4E
3D9C0360
BD059EB0
BD63C234
3D9DA975
3D281682
3D98BF8C
3E238762
3D2E1003
BD16B960
BD0D8CD3
3DCFFEA7
BDC17565
3DB39E70
3D349338
BD21DB77
3D425088
3D971066
BD62B7E6
3E023178
3D94CE81
BD46FD83
3E19DE25
3E01111D
3E05C90D
3E0797F2
3DFC92AF
BDA485DA
3DA64C8B
3D7C9946
BD3CAB6A
BB776E61
BA3CD080
BD931139
BD05A50B
BD212AF8
BD955D88
3B900404
3D8894C2
BD03E273
BD31E002
3CDEF0D7
BB84A1FB
BE12A689
BDA28320
3C8BEFA2
3D8196DD
BD59B5F4
3DA29B11
3DA09F1C
3C92958F
3D3F84A5
BCC66B19
3CDDDF1E
BD6C48AE
3CED783E
BDDF783A
3CEC2D30
3DAD1802
3CF73500
3D48A9C5
BD3443DA
BC9C9F4D
3C4B7E23
BD0E63C9
BE037ED1
BD402603
3D062BAE
BDF6AC5C
3D296E63
3E274859
3DF9E9C9
BDE79FFF
3A4D8A0C
BE061B7F
BD95B9C1
BC1AB269
3BD80C1B
BC83D811
BD33E329
3DFE7E12
3D02AF98
BE0965C4
3DE4269C
3E1A2343
3DB271F1
3E1E0DCE
BE222E62
BD6461C2
BE1ECF4B
3D872DD3
BD4597AC
3DB9F938
BE139984
3D691DCE
3DD21504
3CA86DC8
3A8125DA
3D86FFD0
3E030559
BC82EEE3
3DD94465
BC094AA2
BD5EB911
BD8C0139
BD1293CE
BCE4B282
BC9B100C
3D95FCF9
BC02E9B5
3E19ACD5
3E03A4EA
BD9E3993
3DBCB6EF
BD605997
BD4A6F9D
3DCD76D4
3E026E9F
3CB1BBB4
3DA62BD9
3CD763AA
BBBC32CC
BD1D0640
3D4D7A67
3D5ED3AD
BDFBC847
BE15CAD6
BDB5982B
3D91ACA4
3C184AD0
3DCCC345
BCF323FA
3DB911AC
3D54B381
3C0CD94D
BD6FF08B
BCAFB92B
3E167BC5
BDD40C99
BD044CDE
BC900EBC
3D30C9EA
3C9076C0
3E116627
BDD82415
BE064023
BE1A6CCD
BE190209
3D651CF0
BCEBED64
BE359210
3E03BBB3
BE25B144
BC259032
3DC351B1
3E196FF0
3AF74BD1
BDC5E266
3E09FD6D
3E0EAB3A
3CC44E33
BD942700
3BAF3AC1
3B2A0B01
BDBBF7AB
3E15D9DF
BC8C4A76
3D8C8364
BD8E8338
BE1DD463
3B893E42
BDD3ADB7
BD7DB875
3D9E4BDC
BA968C49
BD5D9B21
3C090A15
BD884E20
3CFFC9EA
BE29BA0D
BDD924BE
3CCB1E36
3CB88A45
3CF56801
3D8F2829
BCE52A77
3D8B28C8
3D6AB337
BAC0B567
BD26D519
3CC16388
BDBE5CCD
3DE81A48
3DCF3395
3B931FD8
3DD0239F
3D2C2FDF
BC0D39DA
3D66B2B2
BD870BCD
BDA8E5FD
3E0C2E8B
3DB61844
3CA2BC32
3D6A7130
3E16B532
BC83E5B8
3DF122A0
BDB5A4CF
3D488F96
BCE2E8F9
BD879FAB
3CE57290
BC34E51A
3C239236
BDA18DD7
3BF2ECC7
BDD3F2D6
3AF02C78
3CC1DD15
BBFFD2F4
3DD6CE9C
3E04DC3C
BD3A4B76
3E242A22
3DE56066
3DA21BA0
BDA42779
3DD72C5C
BC867E49
BE1D00B5
BDA52661
3E0915D5
BDE97BC5
3D1B678A
3DF73DED
3D7E0465
BD54D133
3DC2299F
BD04B71C
3CC93A87
BE008176
BE24E6D5
BCC481BA
BDF57604
BDE4977F
3CC8BB5B
3D81FACE
BD9E3F66
3D8F4D9A
BDE84471
BDE0786F
3D03C057
3DBAEF4F
BD9B35E2
BCF21328
BC43B29D
3DB47B34
BDD5742B
BC258C57
BDA464AF
BD389C03
3D1CADAB
BD302D3F
BDD01441
3D2B29FD
3C808D84
3DB39EC7
3DD9F3F3
3D44EB8D
BBB9FA0C
3D3C4A2B
BE01E20A
3D0B1268
BD1C484D
BD6A79E4
BB8B21B2
3DB37C5C
BD8727A3
3DC6B71F
BDF2E092
3E212590
3D522BAC
3DC3CAE8
3B910FB2
BD066E94
BBE3E6DA
3D1C3047
3D87DF02
3DD1894B
3C8D218C
3E2E5B4A
3E17D1F5
3E0C3B22
3D580A7E
BC7EEAC2
BD426CD2
3B04C54C
3D19D1DE
3D289D86
3E046D12
3C37AC1F
BCDA1611
3DDB99C6
BCA5C41A
3E25DBAE
3DA671A4
3C444514
3DE4CEF3
BDB0FD6E
3D2475DE
3CDD3C6C
BD26605C
3CF4B350
3D8A9D97
3D7C695A
BB32F25B
3E0E268B
3D87BBFF
3CA2BAF0
BBFFDAD7
3DBBD92F
BD9FCD80
3DA3EC64
3C11D265
BE160843
BDE7E259
BD6978F8
3D5C6554
BC870B22
3C8A2DE1
3DEED6EA
3BE6337B
3D213D8D
BD7D0511
3D85BE60
3C3BEA11
BD82C241
3DAF80AB
3D8F7BCD
3DE3EDA4
3D061EB3
BD499ACE
3CA24951
3E06DECA
BB931734
3E12A987
3E361DB6
BDCAC066
3C4153A8
3D404C6E
BC33E1FA
3DB1BB9E
BCD8B91A
BE2FFE4A
3D32C2AD
3D7E303A
3C132618
BC96A802
BD02228A
3E2C627F
BD50E0C0
3CDA7BA2
BE26FD8E
BD85C7EF
BD34D738
3CB1F2F7
BD5216AE
BD176D77
3CC1CED2
3E1305E5
3DA0D6DE
BD9B2DBB
3A33CA9D
3D9FA365
3DC866A5
BDBF51FA
3DA88F42
BC9B35E6
BDA92CD7
BDDBF9A7
3DB1CD02
3DA66CF1
BDFA80D2
BC2C41F3
BD26D6A4
3D18D4CE
BDE0B6FD
3C7DC9BA
3DDC2EF1
BD304169
3DD50D2B
3DB3A69E
BB4D9DAD
BDB4E146
BDD34B50
3CCD97EE
BC45D04F
BBD76BA2
3D70E7EA
3D71DE72
3D7DB2B6
3E2C9F57
3DD3CB12
3CB53EAC
3BF6B6C1
BDB1DF8D
BD8A81AC
3D539ED1
3D1B8061
3D1AAAE4
3DD49F6B
BD50296E
BDBF2E9B
3E018A5C
3D44C696
BC4F8ED4
BD9AEED7
3D1B103C
BDBB3D11
BDBD0B72
BD835B7C
3D323ECC
BDDAEEA6
BCA9311C
BD25FE21
3D48CACA
BDBB3D97
BD45AEFC
BD45863F
3D09C1C8
BD86B667
BD9D32DD
3DB6898C
3D9CEFBA
3D89CFF1
BD1B6B0B
BCE72F94
3DE5E345
3D9BDFCE
3E11FC51
BD6DAD2D
BD637E4A
BC4CB5D1
3C6535BA
3DB85817
BAD5C2EB
3CA4812F
BE0B30DC
3B823ECA
BDA363F3
BDFA55B8
BD4C43FB
BD5C0918
3D474894
3D18C9B6
3C6F9976
BD7390A3
3D1A3B6B
3C1DB882
BDB82F49
BD40D314
3DACE9A5
BE1DB2D8
3DEC87B0
BDA5A156
3E092F79
BCE76F80
BB88016C
3E0602F1
3E103D6F
3DDB7EE4
BD0789E2
BDB2ADAB
3C72D2FC
3DF3B242
3D5C2E84
3DB225E0
BC15A9A0
3D4AFF05
3DC5AA71
3D3B9BE2
BCE15F4B
3DF54335
3E208056
BC8983F2
3B58C325
3D420066
3D23857E
BCF761D7
BDA2A371
BCF3174F
3CBE1D11
BDE9A892
3D1E3090
BE1479E6
3E0CC821
3DAC5780
3D2CEC47
3DD036FD
BB91CE8A
BD8171BE
BD1AB4A4
BA811162
BD8CA340
3DA21A90
BDF58194
BD9F7A55
BAD08E78
BE0A8052
BDAC7004
3DA4C20B
BC9390F1
3DD83AE7
3DD2950E
3DAF00DA
3D274180
BE0D6DB1
3D0F0AF5
BDE0F86B
3DC94502
3DA019A1
BCB40D63
BD732C93
3DB21F33
3CD38F74
3C02ED86
BDDB195C
3DAF57A1
3D9CFBF2
3D11D705
3DAD0BF3
BDE68D86
3CB2CCB1
3D22A9DE
3B094B99
BDD873AC
BD929B4E
BDCF848D
BDA111E5
3D5AC6AD
BBEF61CD
BD1F9E20
BD5009B0
3BA77AD9
3C96BF7A
BC90ACF1
BDEF3F79
BCCF410B
3D8E18E4
3DB1AE34
BDB606F9
3D98F963
3D9A9236
3D1B7D3C
3D657A53
BD53EDD9
3DCB96BF
3D1035B0
3E0606FA
3E1B87F3
3E03B45A
3B8EC2A6
3E03C891
3A940200
3E149FC1
BCA19ECC
BCE39734
BD574668
BC820137
BC107828
3C3C09BC
3DAFA990
BD21BBDD
3E0ED28A
BB883559
3D03A8AF
3D5FCFDF
BD873E20
3D69E521
3E13FD04
3E0939F6
3D22E461
3DC73808
BDB80700
3DBBB050
3DA58257
BD6170F9
3DCB358A
BD244D7D
3E1F327D
3DF8D4D6
BDAECE96
BD9FB733
BD1B9E57
BD6A5F3C
BD71FD38
3E182B58
BD944FAF
3D3F8AA5
3DDB7D39
BD21342A
BD39CBB3
3CEA9108
3ABB27B4
BC103F1D
3CB6ECD1
3CD56116
BDB37BAF
BD9AE1C5
BDCF0B6F
3DBFD9DA
3D933E5B
BDB37DC8
BC9508C1
BDB1A9F0
BD1783AD
BC56D188
3DC27B11
3C51E2B6
B9372FAD
3D50695A
3D66256E
BBE47DC3
BD727D48
3D3048A8
3D3215DA
BDF2DEAE
BD220091
BDBDEFA1
BDB53B9E
3AC4D405
3DC7150E
BDE6741C
BDFC16E6
BD745351
3DCD85DC
BD43BD01
BD1D1E9C
3BA545CA
BD83E4CB
BB11C463
BCA8EB1B
3D11B412
3E06511B
BE06CE9B
3DD95AD6
BD316F74
BDCF3B0A
BD6529B3
BA8AE1F1
3E2407A2
3E2A181F
BD86FA36
3C28F369
3D2BCDE7
3C0B3B27
3C1F4946
3E14E10D
3DFFA102
3DEE3F59
3D95ABB3
3D309D82
3E08EC4C
3DB991DA
3D4EA265
3BADA3D2
3D99943B
BD32EA2D
BBD47C9A
3971A244
3D5210A4
3DF4BACE
BD069F44
3E3D73C8
BCBD1D4D
3DAAD3A7
BDBFB33F
BDCE142E
BDFE26F2
3D9B45E1
BD73584A
3CFA3B55
3D15ADC4
BD737109
3DF8A39F
3D243B69
BDFA481F
BDCCEED6
3E157617
3D17F05C
3E1B6883
BD4E7513
BDBC4180
BD7D9AC0
3C926A00
BCF4EC46
BE05EAA8
BE2B5601
3D42BEE2
BD6915F6
BD02BE08
3C80DA9B
3E29FF47
BD9F3D0E
BDBD35B8
3D355B8A
3E0C48A8
BD88C9FF
BD7A3835
3E0E6150
3CBDED9C
3D634354
3C470AE1
3CC46103
3DA2DBD9
BDA2FFEF
3D81A1BD
BD9221A8
3DDC1072
3DFB5195
3D14A424
BE364B1F
3BB6DFFB
3DF8F9B5
3C14E3C8
3BC510C1
3DE4C0CF
BD3BD15F
3BB78CF5
BD618E93
BDF761AC
3D94E136
BD6E517F
BDF6B52D
3DF240B3
BDFD2AC5
BD1E6F7C
BD840C6A
3C8F0FA3
3CD6F865
BDBBF301
BCABE7F5
BDBCD804
BD43CEB7
3DC22116
BDE1DEFC
BD944DEC
BCEE408B
3D65C6D4
3C47B952
BDED33B0
BDC6E335
BD939DA3
3DACA108
BD0E7008
3D39D1AE
BD8AE639
BE0B87E2
3D7B522E
3DA104A6
3A214763
BC3C132C
BC54D0BD
3D9C16FE
3D6518C1
3E18A41D
3D46377A
3DDFCB32
BB574953
BD6B3D58
BDB2B801
BD63B2B2
BDC33F03
3D6A23B0
BE178118
BBD625BC
3E0453E9
3D67DDBD
BCC73569
BE0B76BE
BB048E9B
3DAF0FBF
3963E5C3
3DD9E5C2
BD054829
3DAD23F2
3D5C70BF
BDEDDEC6
BDD0E6D0
BDB1778C
BE2DEC43
3D4AE112
3D685A7F
BD6833DE
3DEDB479
3C3BA9EF
3D1EEA23
3D5A1B9A
3DD38754
3D91DA33
BDEAA311
BD6CE5EA
3DF221E3
3D454940
3DE99713
BB8D7E6E
3A517756
3D95E7B2
BD6D465F
3ADE4749
BD11DD63
BDCDE7BE
BDC2918B
3CF07513
BD6471E5
3DE32BEB
BE1F867B
3E0005CA
BDFEA10B
3BB7476A
BD8AFE4E
BA53897F
3DC78475
3DC0F572
BE0E2933
3C7DDC0E
BDBF281F
BD943C61
BDA0188B
3D175F58
BDC8D3D1
BDCD91E1
3DC1D7AE
3DB9B54F
3E0C3029
BD62DD60
3E02AB84
BD137520
3DC0BA48
3D084A9F
3CEC8905
3DC6B0C3
3E148913
BCB60FED
3E18C8D0
3DD7C02F
3DFED694
3C9F6EB6
3D5D13B7
BD449896
3E0D2121
BD8C3F0E
3E178BB8
3D6257A1
3BC62E63
BD15A863
3BBA4EF1
3D61A4E6
3C918772
BDC03015
3D5EE9C5
BCCAC2A7
BD9C603A
BCD5FD38
3E02A8C6
BCE666F7
3E0EAC07
3DDEAE97
3BF4C58F
BB937FFA
3DD52472
BCAFF14A
3DDE9A5B
BDE68CF9
3D49E06C
3C98EAC8
BD901ACB
3D98348A
3D906D63
3CC1ED2B
3DB93A9D
BDC296B6
3BE3B282
BE08FD96
BCF151BC
BD3C02FB
BAE16C97
BDCBE148
3D880356
BDF132AB
3DAA1482
3DB067DD
3D83385B
BC286C1A
B8D9594D
3D99FE64
BD5914E2
BDE4F5C3
BD2A275E
BDEACEC4
BD846A3F
3CA9E206
3D81D8DA
3DE5AEEC
BDA361CC
BCF63282
3D63D39F
3D1B7F55
BCB18716
3C436052
3DD82F85
3B7C2E39
BE0C0467
BDAA4B7E
BDA723E7
BD5293EF
BCFF0051
3D77D12A
BBEAFCF9
3BC055B1
BC939BEF
BD091CCF
BE02D47A
BCDF32CB
BDC5E8B6
3D2EB865
3D47834A
BBCB341B
BD9269BE
3DAA77F5
BBBE1046
BDD079A7
3D371421
BDCF9B07
BDD3BB78
3C07E92E
BD90C2BE
BDD6ADB7
BD494E40
BDAD0248
BD833C4F
3DBD9018
BD3B5CE0
3D934E80
3D8363BC
3E054EC8
3D82C68F
3E025B5C
BD80C4C3
BDC411B1
3D4B7C22
3DE1D87A
BCEFF073
BDA5A03F
BD2109C8
BBE75C5B
3DC22778
BD9DD088
3C029404
3C2C89E1
BD44FC51
3E1F7FC0
BDD418D7
3D4853F4
BC48A890
3DC320D7
3E1AF2C2
3BDC7DF0
BE079267
3D7DDD99
3DA0B819
BC2BC3D3
BE0D7282
3D5E1EF2
BA959B5D
3BC52209
BDE8C8F8
BAF12A7A
3BBF73F4
BE08FED3
BE1EDA86
BD0B401A
BDB9C4B4
3D282BC0
BDC6C144
3E0C9293
3D6E2CA6
3D0EB753
3E243DAF
3C577572
BC680481
BD3D03DA
BD8E48E9
3D88D7FE
3CB26DB1
BD22E791
3BE817EC
3D6419D8
3D28C33D
3D811C62
BD2F9FE9
3C2437F8
3D04C8B7
3C8A1603
BC05E1B7
3E02405A
BE114BB1
3E086D1C
3D888892
BC0C2C33
BD82DF71
3C9ED4D7
BCE41086
3DD9ECA8
BD17671D
BC1DC7DC
BD3CD76F
3CAD2A9B
3E132DDC
3D817D6A
BD9AFE13
3D3A4EAB
3D9F2422
BD947EED
3E05202C
BC0772E6
3E03CBA9
BD6AF41D
3D204B52
3E047CF9
3C9CD80D
BD29ABF1
3D7ACF41
3D05981D
3DA751DA
3D88DB81
BDD3F753
3B6DDCBD
3DB6D1AD
3DEA4E7C
BD896427
3C858439
3D45096F
3C9F6063
3CD2503F
3E03CF71
BD6FBA5D
3DDC7FA5
3CFCC8AE
3DA3E1CB
BDEA6FA8
3D8A257A
3DA57DBD
BDA44F3A
3D6762A5
BDA49938
BC3AE442
BD8942CF
3E083AE4
BDBC6249
BD625F10
BCB1927A
3D37A767
3D628FDD
BD86A321
BDFCAC8A
BD75DF83
BDCC15F0
BDDB289B
BC220A0B
BD920FC8
3DA7D6DF
BD169121
3BEA6173
BDD1EB06
3DB1DB8D
BE02D4A8
3D950D43
BD5A4454
BD2D5573
BD7B0B6C
BDA0C45F
3D14E880
3D91DEFB
3D8C10E2
BDD0558F
3DC4C7F7
3D6EC387
3D577275
3D1F3E0E
3D9C0E0B
3CDF7A4E
3C324BF8
3DB1F168
3DC4B670
3DB5E9A3
BE1EB05E
3C155B1C
BBD5A1DE
BD448042
3D4BF99B
3D962D99
3DE029D3
3D8663D3
3D24C4BE
3D7F0173
BCB1ED63
BDE91F79
3DE28CD3
3D1805D3
3E3A8F15
3E1FA045
BCEF622E
3E2B7E0B
3E1E558C
B9CCEDAF
3C6D9006
BD2EB10E
3D80308A
3B444819
3D6C5DC4
3D351127
BA63DDB5
BD966670
3DAE7C8D
3D320427
3D3280BB
3D094206
3D6FFA29
BD5211B8
BD81A9CE
BCD77298
BCE552FB
BC94F38D
3CE2AB30
3CB0FC52
BB1EF421
3DA0A84B
3BF3F7B4
3DB66FAF
BDCBA661
3C04ED5A
BDB33679
3CBF309D
3CBF0D47
3D68578A
3C3DA074
3D5A93F0
3E2D4204
3D4A457E
3D16B660
3DC504E1
BC8A2DBB
3D985FA0
3DC9210C
3B7D59DD
3CF7D0FD
BD253AF5
BCA5EB82
BD94A7CE
3D85FA5F
BD82A2D8
3DDE44A1
BCDC36C2
BE0D4D1B
BD5DD787
3DB97A66
3DCBFD7F
3D8A131D
3D8047FF
3DD35ED3
3D48248C
BD257B75
3D0573DD
3D2E434D
3D20D154
3E2542BA
BD01DFA6
3DA2A3D4
3DC845AB
BE0F09F7
BCA39591
BD0D7767
3DA273C6
BCA93F7A
BD9615A6
3D9C3577
3D8F1534
3DC34757
3E0560EA
3D508A51
3DCDB45A
BC7A5444
3D079FC4
3D5337DE
3D619455
BE1CD2F5
3DCBE651
BD8B20A7
BE1B4AF2
BE06BD25
3DAD8CEA
3D11593E
3CBE462C
3D8E70D4
BDD77066
3CA8C3C4
3DD28E5E
3DFFF984
BC9691A2
3DB975ED
3DCC9171
BCEBCDA9
3DC2F56B
3DE0B918
3DB6E86B
3CCCA240
3AF9599E
3D228070
3D181E8D
3D85DB52
3D86E5F0
3DD6F9A5
3DB0B2EB
BDD79352
BCB159AA
BDA64EC7
3CC1C63E
3DA7BABF
BDE000BF
BDD8DBC4
BB93DA7D
BD2D320A
3C8F6995
BE19651E
3CD6D8DF
BCBDEE58
3DFCFC11
3D29309E
3D0FEB35
3DDACD86
3C238DAE
BD47A797
3C4F7370
BDE56D0A
3D4E8D2E
BD918040
BD1D818E
3C28607C
3C48B028
3CA32BEA
BCF7D2DB
3D39B51B
3BC5C16B
3D90CDA4
3D645793
BD452F72
3E0FABBE
BD606D40
BC050380
BE149B1A
BBB94485
BDAEC35A
3DB779EA
3D9C7214
3D4529F6
BC471802
BD0894FA
BCB37807
BE1B366B
3C89985A
3C05CE15
BE195952
BCD5B172
BE008B11
BD2021FC
BE08F798
BD68F3D5
BD29AE1F
BDDAA437
3BC7009B
BD22CE39
BDE6551B
3D38E5FB
BD0BC8A1
3DA9586E
3D24BC58
3CA368A5
3C731BA1
BCFBB4C7
3D8EC0EF
BDF4E0F0
3DC6EB2D
3C97609A
3E171CE3
3C4E96B1
3DEA7725
BCC0F868
3C82A373
BDA5158A
3BAAA194
BD82917A
3D785615
3D70C94E
3E1DA3F7
BC8753B7
3DB22E86
3D49D839
3C571B65
BB9FBE61
3D99C025
3E17A857
3C61F117
3D9C9CBE
BDA4F1B2
3CD89893
BDA03566
BCE9D099
BD171FE7
3C891FEA
3CACD957
BDE2B4DF
BD48FE1B
3E037480
BCE193B9
BD28E252
3DD2309A
BD42A4F9
3D5DA588
BD2CA545
3D7D8021
3C50C43E
3E0212E9
BD66E0C8
3DFD7EE5
BD39B89E
3BA2DBB8
3C7BAE41
BE0918DB
BE13DA61
3D928907
BE13227E
3AC3C2E3
3DB994E0
3CC73F1F
BD1149B4
3DD64C9C
BDA06A75
BBF8A89E
3DFF366D
3C96C88F
BD952AB1
BDEA0873
BC98CE93
BD4E77D8
3C7D2EBF
3D100A74
BE030CE0
BD52C1F1
3C674ED9
3CA98A22
3D28941B
3B2DDCC8
3D5E58DE
3C04A638
BE072DF8
3C42D9DA
3D46A121
3E148FA2
BE04B59B
3D61E576
BC9FEA51
BE0AD807
3DA20166
3DC2A5E5
3C708ED4
3DB8A100
3D94A357
3D42C1CC
BCFBF071
3D0F7BFF
BCCBAD98
BD36215A
3D721EC1
BD8E9765
3E0C19DC
BDB70ABA
BD95BCF1
3DDA1DC1
3DD8C1DE
3BC31DE2
3D812A30
BDDD3AD5
3D488491
3DC64FE8
BDD635CC
BDC32ADC
3DE265C6
BC0C1BA2
BDA55D9D
BDC49FB5
BD9C7DBA
3DC3D128
3D1E832E
3D8D18C0
3DF67FF7
BDF180FC
BDAFAD3C
BD87C6D9
3E08C68F
3D2C5124
3D963841
BDFE346B
3DA22A44
BD0A8E11
BD68C30D
3D13504A
BD3A2A76
BD356C2B
BDAA9714
BC789DD6
3D6A91DF
3C91B93B
3B910C57
3E03DDC7
3C2075CC
BD30C245
3E1D2419
BCBE77DB
BDF7EE07
BD13284B
BD53B874
3C89D3AE
3D07E455
BC529B99
3DB26815
3D05BDCF
3DD1C8D1
BC9C909F
BD1C3B8A
BE0C659D
BC0E0094
3DCB3BFA
3D84BD6B
BE063A1B
BD92EDC6
BD94B0E6
3DFC856C
BC2BE29C
3CAE3D05
3E163BCB
3D20F441
BD9A139F
BDEA25F1
BC853B73
BD832DF2
BDA5513E
3DC5631E
BD996F1F
3C97EAD3
BC97FB95
BD1720C3
3DB54A7B
3E06493A
BDA47840
3E0F8B9F
BD7ADF42
3D84B69F
BE043CEC
3D959B7D
3DEC1842
BE10604E
3C296056
BCD736C3
BDB9D4F6
3D889E9C
3DBE0F29
BD54C15E
BD8BCEA1
3D127A96
BD0060E1
3DC6D500
BCCDE28C
3CD7B838
3E08BABC
3E0F2F2F
3CF2710C
3E042777
BD8AA231
3D57D3C7
3E0E644A
3CE29A44
3D5304F8
3DF8F4A7
3E02031D
3DBC4C99
3DBCA50C
3C18DE48
BB6BB114
3D8417BF
3E112B15
BD4A1E64
3E1C70D4
3E034FF2
BE171E92
3D1C74FE
BE1E1BD8
3E11DAAF
3B54DE3E
BDAEF678
BD947D9A
3D47427F
3DCF015C
3AD79E62
BCE91BE3
BCCB13AF
3DC7996A
BE1CAB79
3E12D41C
3DE71EB9
BDDE4EC3
BE1766EA
BD9ADDCC
BE009A11
BD806541
BB2620BC
3CFBC93A
BB9F1AE3
BDE90399
BDEB7A2E
3D4D1DD0
BDD3DEDF
BDFFA711
BDAC2ED2
BD2BD9BB
3D2475D3
3D4E7E0D
BDD73E54
3DE9D6D5
BB7A6C17
3DEFDD77
3C9107E5
3D89E999
BB49F62E
3D75AE90
BCC2B628
3DF3CF84
3DDBAF0D
BDECDED1
BDBB6F8D
BD9436EB
BDA06515
BDD5C64B
BD7421A5
3CD23ABB
3E03B2B3
BD64AB7B
BCF8B3A6
3DA16643
3D8572FE
BDDE2A52
3D08D470
BCC6E1FC
BDA1609C
BDB23DB6
BD2A38A3
BD8AB1F4
3C8759A6
BD09CEB3
3E24D89B
BD8C3B5A
BD9F29EA
3D189088
3E00E676
BD201AC0
3DED5F71
3E013D20
3DD57430
BD4D98BD
B9B04807
3D2C5CF5
BDD2E38E
3D6A90FB
3D8560C6
BD8F0FF4
BD93B724
BCCEE2B7
3D696E76
3B68CD33
3E3099A2
BC91081B
3E3642E0
3E0994EE
3DFA632F
3DD23C51
3E168065
3DB3D8D8
3D703176
BDFA1A66
3D798CE4
BD12E4BC
3CDDAE67
BE16B1FC
3E0E2154
3DF93F32
BD28194C
BD818EE6
BD784A47
3D42C3A4
3C9C0D21
3D6AF1E6
3DAA4E9F
BD702CC6
BDABA7F4
3E346141
BD8670D4
3D9BB5D8
BD8DD7AA
3B9301D0
3DE7DE67
BE2B41A8
BDA2CE48
3DEFCFBD
BD63408A
3D48D3BF
BD3ABDC4
3B24436C
3DB91BCB
3D8693FB
3DDBE5DD
3DEFD995
3E05C54F
3CB803CD
3D3A6FF6
3DEF5A1E
3CDF5F66
3CC6FBF3
3D7AFD82
3DD7B605
BDBFC90A
BD561FCF
BD1D2EED
BDA977DF
BD32D448
3CDC2453
3D95B9CD
3A941B2A
3DA674A2
BD42C486
3CAD0CC9
BDBA7463
BAFA1F96
BCAA268A
BE11C541
3D64DBAD
BDE2E8CC
BD8608A7
BC0DB062
3E0DE853
BE100D05
BDE151F7
3DA60B74
3D6B0FF1
BDDAD3D9
3DB31279
3DDB3147
3D39A45C
3C426FD2
BD4FD411
BD7FE2F2
BB7C3570
BD15BC42
3D827FAB
3DBE3D6F
3AFCD2CF
3C559259
3DC68097
BDCB74DD
3E0657B6
3DC5E3C2
BD6BF597
3D912446
3DAC3826
3DB671BE
3DD10C6F
BD665694
3D7576DD
BDC01AD3
BD5DB113
BDE61D73
BDEDB978
BC194907
3D4DED18
3C9E33C8
BE00A8A6
BBFCE81E
3D557903
BDA59426
3D4CEFB0
3B79B812
BDA272FE
3D99B13F
BD68259B
3D17124B
BC253ACD
BC3E2738
3D21BD3C
3D8E6788
BDB2A670
BDE9049E
BCFD1EAA
3D487CB1
3D071FC2
BDB06BA4
3D8262CD
3C8A759F
BDE44FAC
BCCCD6F9
BCD04309
BDD3CC6A
BE0AF5BA
3C0A74AE
3D379703
3DAB8E8D
3CD5BF6A
BDC5BADE
3E1BD045
BD23FB4A
BD29B746
3DA1D63B
3D7DB994
BD8C4F61
3D684958
3DD0FB65
BD8BFCD5
3DB15A6E
BCFFA232
BCD2A193
BD2DD6A0
3DB39291
BD65BD09
BC3A460C
3D16585C
BD2320AF
BDC7D7C3
BDF2D657
3DAB8B6D
3D49B42C
3DCC6FBA
3DDCEB81
3D6320C9
3DC77C63
BDC79EBF
3D7762AD
BD86D74C
3DEE80D2
BD206BDE
3D64FAA9
BA9E44FA
BD5312F5
3DE8140A
3D1904E4
BCF7EE0E
BD46EB94
387D8BB1
3B54E778
3E147976
3DC252C7
BD8CDCF3
BD0303A6
3E1FE480
3DD8FE69
3D626972
3D81F29D
BD0914D7
BD8FA64F
BC01A7EB
3DDA4115
3C9E3BAA
3D646164
BE0328BC
3C574251
BD898966
BD944FFA
3E254DBD
3D48D707
BB08EED2
BD5057F2
3E2F3FFE
3D2E5434
3CE7B530
BDCF4AAB
BD3B85C0
BDDC47D2
3CE47D6E
BDA17FC3
BD8327FF
BDAB462F
3E14014D
BE113816
BDFB5F29
3CC70F4E
BB56D7E9
3DFBB964
3D942D49
B8E27352
3CB80A1D
BC450187
BDA4A902
3D5597FA
3D09AD6B
BDCC1801
3C39086A
3DB28E5E
BD2D042D
3E0B7209
BD853EC2
3DD6DC70
3DC0B445
3D445FE4
3DB4B140
BBA29B35
3D82899C
3CBD1EAA
BD8677D0
BDA333A7
BD7C788C
BD7797D4
3DC3E713
BD0B7C0F
BE1BAC79
BD6D32D6
3CC8090E
BD939700
BDFF04A4
3DF379ED
3CD7D4B3
BCC277C4
3D632E38
BDFDEF68
3D096196
3E16D2D0
3DAF9BDC
BDEE4DD5
BDC47423
BD8B02BC
BDAC4A26
3D97299E
3C99D2FA
3D0656DC
3D94989E
BD7FCFFC
3D702FA6
3DEB7A09
BBC7B8A6
3C1B2017
3D89E45A
BDBF2A6E
BD4BA5D6
3DD420AC
3DFF9F1D
3E0EB533
BDD45917
BDD4261C
3DDC3545
3B9D5A2E
3D580E7F
3DBAD83A
3D3C58D4
BC924DEB
3D129444
BD72499C
3DE2DF44
3DA4C22E
BD0CDE70
BC55ABB9
3CA0C22D
BD8FF20C
BDCAC3BD
BE075B2B
BDD68A4B
3D370583
BCDF5931
BCB61998
BDBBFDA7
BCEE12DD
3DED1ADF
3D92C0E6
BDC883C1
3D0E3B27
3C1E9105
BC969DDC
3D1831C3
3C05D1DC
3D4E4BCB
BDF4491B
BD3370E3
BD512E69
3D55B658
BD581563
3DC44B9A
BCB08AE2
3C938411
3DE41CCF
BD2C8D9D
BC5211FB
3DEF32B8
BD728213
BDADF952
BDA5F288
3D3D7B15
BD7DDF61
BD2152F9
3DBA94D0
3CCBF3E4
3D3D9D2F
BB38A4CD
3D228AF7
BDE7DB4D
BBF71739
BB0BA6BD
3DA93EDB
BD38FC35
BD6CD530
3D779A1B
BD81DB34
BDBE5DC1
BD1A9552
3DC963F8
3E0C85F3
3D88229E
3D7BE899
3B93EF76
BDEBB7FA
3DE930AA
BDA1FFD3
BE223775
3CCAC962
BDE0C110
3D51DC66
3DA5F830
BDBA2EA5
3C3C8887
BB5432F3
3DD04437
BD70352C
BDCD604E
3D079A13
3E09EA11
3CD588BE
3DBB851D
BDC99E3D
3CAFE0B3
3E00311D
BDD56D0C
3D73570A
3B8CB403
3C596989
3CD971A6
BE05497D
BC63C2DE
3C4F4C99
390A7C45
3CEC65C4
BDA22E86
3D9A52F6
3D309071
BDE67876
3DC72C95
BD506AB9
3DC2971B
BAF4CC9B
3DC6BEA9
3BB4FE3A
BD32B1B9
3D8DC12A
3DADDFD7
BDD511CD
3A4A2904
3B22B4CB
3D52D341
3D84C824
3D4801A9
BCF2F08D
3DDD2127
3DE29D87
BD899D97
3DA56D06
BD9C912C
3D71B958
BDD68A8D
3DA71E4D
BDD03AFA
BD62AB41
BD5E8EEF
BDF87699
3DEE3D9F
3DE3DCB8
BD43B9EC
3BD86F58
BDECC608
BC639F01
3C50A824
BDEEB110
3DC581DD
3D78854A
BD82C61D
BC990408
3DDEFA3D
3DFA97F8
BDD55703
BD29F608
3DEED9D2
BD27FCB1
3DAFE482
3D9ECE66
3D35C679
3DB2960B
3A4EB2AB
3DC099BB
3D96155B
3DF115F4
BD6BC045
BDEA2CF8
3CCF433F
3D2B9EB7
3E16EE84
3D8AAB5A
BC607CCD
BCC2EE9D
3E190C15
3E27E38C
3D5A38BB
3C974856
BD2DF615
3D8BE5A2
3D3C3AE4
3DDF5D31
BD7A15A0
38F4B219
BD9E6D07
3D197EFA
BD9AA9F6
BDC052C0
3DA111E3
3DF5B60E
3D75FC49
BD737B22
BD8F02D8
3BDB6D0E
3D3935E4
3DAFDC31
3E2524CA
3D603DA3
3DFE5D21
3E077C91
BD071C71
BBD6CD16
3D17D016
BD844AB3
3D29ABFB
3D90648A
BD7B74B0
3C856BB5
3DB1FFAB
3E12680E
BCEDDEA5
BD70B847
BD9ABE4B
BE20921A
3D622349
3D8AA601
3B795E50
BDB556D4
BD99D6DC
BB7A31E0
BDF5BE12
3D95DB52
BE08B05F
3DC8ABA8
BDDCCAD8
BCBDF4A2
BD8EF9B2
3C2CEAC5
BE05ECD6
BD16E9F4
3C34E4C4
3E044C80
3CC4C780
BD7BE632
3CF0AC90
BCC2F4D2
3CC8F8DD
BCE4ACAD
BD5D2926
BD9F4B51
BD582870
3DB21CDA
3D36AFCD
BCD37233
BDECD639
3CA60157
BE03778F
3C8310A6
BD93C2CF
BD9E8277
3D865D13
3CC96209
BDE49515
3D854F3B
3D6631F9
3DC74C62
3D1505F1
BDB55E59
3DB14B38
BD0BE485
BDD5A5DA
BD90480E
BD96BA25
3D6F4AB1
3DE44D34
BD81A4B0
3D8355C3
BCF711AF
3D5C8742
3DC03070
BDCAA3D8
BD8D721A
BDD67202
BDBF87D0
BBFA35A6
3D0552DB
BC9E1D37
BDD17613
3D2FFF57
BD9542DD
BDE4DD22
3D5BDAD2
3D288898
BC8FE32D
3D73867A
3DB81021
3D9489B9
BD5DC184
BD9ABD0C
3D2E0A17
BDEE88B8
BCBD611F
BD5F5BE9
3D08188B
3D34FD50
3C35B559
3D8A9312
BD6EB74B
BD5299E6
BCE16093
3D521E6E
3D4B45BE
BD467339
BD4335CD
3D4EA334
BC4F8C45
3D1FD400
3D7EBD6D
3DA3DB66
3D61786B
3DA761F1
BD58E91D
BD239E7B
BDB70BB8
3DE7084A
3DBC4F87
3BF94CC8
3DDAE2E5
3D8BB778
BE096510
3DB39332
3DA577B2
3D2B085C
BC1DB222
BDC9E9B7
3E11A753
3DC60BD2
3DE6BA12
BD8727D7
3D012C1A
3C9ED40B
3C72F429
BD0A5816
BE07AFC7
BD3F036B
BD690AD6
3BDC7E46
BDCE0263
3D397A2D
BD935C9E
BC09A59B
BCAA950F
BDF0080A
3A56868A
BC8C3994
3D895F53
3D32F9F5
3D010FC5
3C8721C2
3CC2DE2C
3D0ACE5D
BD922163
3D5F27D1
3DF474CA
3C070E52
3D996539
3E1B5E3C
BD8AA4AB
3D94E75C
3D46D3DA
3E0385CD
3E056DBD
3D93904C
3E1708CD
3D31D3D8
BCDBE61A
BC1DAAAB
3E23D695
BD8C7167
3CEF1277
BC625F9C
3C3056CA
BD329BB9
BC4EA656
BD9F8111
3E055500
3D7BF033
3DB70E40
3D02FFFF
BD95A138
3E1B0439
3E105B12
3DD16BFE
3BD82484
BE0B0C27
3D4E9623
BDD87A95
3D4000E1
BD8DF828
3DC421F9
BD62CCBE
BD7102EF
3DEC3FB9
391EC92E
BD566DDE
3D2907CC
3DB21E5F
BD52B37C
3DF67D89
BD33581C
3D948B38
BDF1B627
3D92F58E
3DA08294
BD999EC5
3BAE5680
BC5A6551
3D8E42E8
3BA4DBED
BC848545
3D67AB80
3C80A079
3D4E1B49
3E1952B6
3D2C66E9
3D222B89
BD8457E0
3E17F18A
3E18C449
3E1DB52B
3DCB2497
3D51F510
3E070F1E
BD15DE5C
3DEC22FA
3D8BB8C2
3DB323D5
3DDFC5CA
BCF2AC95
BDDDB1D4
BDFD999E
3DA0B68B
3D84C8BE
3E06F579
3D8D0963
BD0A0BA7
3D1BA082
3DC549A3
BD8807F1
BDBC3862
BDB7BC76
3CAB0014
BD940E2E
BE14016D
BE28B015
BD19D437
3DE3F555
3D05BEE1
BE0344D2
BE03C418
3D5E4C4C
BDE1AC22
BDAA98E2
BD8A4367
3DC1A8CA
3DA59CC4
BD9F7873
BE1157BE
3D8C6E51
3C804489
BDAAC959
BD14ADE5
3CF9FF65
BD341D2B
BD8E8E77
3D7F72BF
3C041A2B
BD6C333F
BD1966D9
BDC694F0
3D4377D7
BBED4CCA
3CB46202
3A9AB7FD
3C120942
BDB6E6BE
3DA2D5DC
3CA066C3
3D91D465
BD67D4E3
3D29847E
BE112059
BCCEF4F0
BD1FDF03
3D5EF820
3CB427B0
3DEDE9BD
3D68E666
3DBC6A80
BC0359C7
BDB30AAE
BDADDDD5
BCAD1AC0
BB6A4F6A
BC34ACC5
BD68902D
3D0F9790
3DCBD91A
3C036FC1
3C8596F3
BD06F06F
3D09A642
BDED3C76
BC819E91
BDB975B2
BDAAB413
3DBB115F
BC780347
BDAC562E
BB43DB0C
BCBFC74B
BDA7783E
3CEA8875
3D1E7820
3DF6B51F
BD2DFBCC
BC88A226
BDF98343
3DBE7C86
3DDDCB20
399E5719
3B6F3E11
3E01A964
BE065CEE
3DD62E01
BDAF4FD6
BCA5C287
BDEFBD4B
BD06258C
BC6F6CE0
BD789AB1
3CDED7CC
BD68EF68
3DAB2B38
BDD7BCC5
BB0A181C
3D866383
BDE2166D
3DFEF66D
3DF3D1CF
BC5F6C77
BD6412E5
3DB3A0FF
BDBE3653
3D4186A8
3E27D628
3C30AC65
BCD30DDA
3CAF487D
3E233480
3D8793FB
BD77CFC0
BD78EEDA
3DD4ADBB
3DF3794D
3E0715D5
3E1315C6
3D81CC83
3D8E36CB
BD4C0897
BA09DFE8
BD2D5833
BC7187D8
BDAEBC67
3BE8B231
3D4FA2D6
3DBE6F8E
3D8CA04C
3D9D32EE
BC96D930
3D901823
3D9118E9
3D834CB8
3DEC649A
3DCAAE07
BD8D6D25
BD16F535
3D0A023F
3D9C1C8B
3D5DBE7C
BD39B1D8
BD73AFC3
3D6AE089
BCA48E85
BD1D2AA0
BE0047E1
BDC0BA48
3D5EAB51
3DB04D05
BD64B30B
BE0BEFFC
3D7DE3AB
3DAF791C
BE19F73B
3DE59C78
BD344F30
BDF10D55
3E08CD5D
BC81C248
3E095BC5
BE1653B3
BC31AA07
3E070A30
3DDA0C38
3E1BDB92
BD1059D8
3CA597A4
3D71A1E6
BD6A6D72
BD442CDE
3BD73734
3D3F44FD
3D033FBE
BE1A203B
BDE094E0
3D1D8948
BDBD0799
3D8617D5
BC78A273
3DC74691
BE20923D
3E0F80C7
BDC14AEC
3DCF481A
BB9C8B91
3D35FB5F
3D98296D
3D372CB0
3D2073CB
3DA69306
3D644E76
BD208B63
3DA53996
3DC749FE
3D58C2C7
3D52A6E4
BD9D7530
BDE8455E
3DEF16B4
3D9CEAD6
3CBAE8CF
3CAB02C8
3B166202
BBA09145
BD6EDFE5
BD3880B8
3C552E05
3D58B0D1
BDC6B091
3DB4C009
BDD1C8D3
3CADCB70
BDDB9ED7
BDC42AA9
3C24A2B7
BC292776
3D0C4AC1
3CEE00C4
3E0F8F04
BD1A6DAD
3C9791C7
BD5774F9
3C992F9C
3DFE9D67
3B52CD98
3DBA9D56
BE014778
BB5E0229
3E13D373
3BB82D6E
BDDFDD04
BD886CFF
BD989237
3C2142FB
3CAE6635
3E00056D
3DC3D4BC
BD710744
3D874F28
3DC4C7B2
BD499F10
BDFD5249
3D8A9529
3D30AC6B
BC1A7130
BD8E4136
3D9289CD
BD9EEBFE
3C8ED058
BB4FEFED
3DB03745
BD21D743
3DDA5E95
BD99BFF1
BD8AAACC
BCC130B2
BCF5253B
3E046A49
BCE1F634
BD579C1E
BDEEA17F
BD6C3C19
BD1F0587
BD5EC0D3
BCD331C6
3D0C7BDF
BD7BEACD
3E054E10
BDF03C63
BB00D4FD
BDF6B9CF
BC7D8C93
BDD2FBC0
BD9B20DA
3DD6EBAD
BDC3B720
3C958263
3CE6B536
3D1BEBD1
BBC4C150
BC3463B5
3D6A994E
3DC3F8A6
3D0671AC
3DADCCE6
3DF63E7E
3D7FF58C
3E01B418
3D4E34AC
BD27FFBE
3D0D8DAD
BD57D64B
3B0A77BE
3BCEFB66
3D663AE5
3D1214E3
3DAB12CE
BCBA35C1
3E0CE9E3
3C9969E9
3E03A092
BD711F0C
BD9938D9
3DD6A856
3B9D0371
BD88D353
BC05851A
3C434DE8
BD67097F
3E0B08F7
BDC42082
3D4DEA6C
BBAEC088
3D89F036
BDAB4327
3DFBB51C
3DAC319C
3D3C7E4B
BD74D9A6
BDB84229
BC218002
3D015296
BDB3EAD6
3B67A642
BCECF5F2
BD58B8B1
3DD7CD9B
3E175E03
BE023CE2
BC6E1D2A
3D514D93
3D1B3C7C
BD3B8745
BE026EB6
BD833753
BD5B229E
BE130FB2
BD308556
3DD0D3D4
3D2AF1C6
BDDDA3B5
3CB7F946
BC9C9024
3C8AEAB0
BE0B400B
3E20E7E6
BD4DD403
BD882BD5
3B1CF3EC
BD85888E
3DCB2604
BD8832D4
BDCF4024
BDF6216F
3DE8E59F
3E08B573
3CEF4DA0
BD5C9100
3D1E08F2
3C93D804
BD9A450F
3DEAD69A
BDCB9039
3D8FC79E
3D5300C9
BDB7FCAE
BE071788
BC19415A
BDFBCE94
BDC91B3C
3E01564D
BC58BB0D
BD8EEA64
3DD6F0E8
3D5A01C9
BD94779E
3C4BE1D6
BD15E61E
3E029C3A
3E09A3B5
BDC5AD94
3CE94C85
3DC3DC62
3D27B132
3E135895
BC0C6036
3CC757D8
BD55A11A
3DE50B3B
BC2B263F
3E29C707
3D14448E
3D337F0B
BC38F738
3DF0BD26
3E0EF985
3D43D748
3DE6875D
BB88A266
BD7BE7B0
BD29F669
3E02A68D
3D4578DB
BD74551A
BD9849E3
BE24EF50
BD68D72C
3CC83873
3D4B3CB2
3D4E58AB
BC9D1E84
BE4AD22D
3DB1632F
3A9113B9
3BF3F2EC
BE1AF2D4
3E13D8E5
3C44B76A
3D2FFBF4
3D2D3230
BBC967A8
BE2D0DA3
3CD6F58B
BD70C197
3D40FA94
BDD7033E
BC01CA90
BD71CDE3
BB94839B
BDB3F72A
3DD7D8D1
BD702EEA
3D3BE95D
3DE04594
3E1DD2A8
BD646FA4
BD4294DB
3DC2E6E2
BC9352B3
BD38066F
3CCAA0C8
3D296145
BD30F1DD
BD376915
3D61DD83
3C5CAC49
3DFDF1BE
3DEBAECA
BE1C4F0B
3C717025
3CCBA763
3E0DAA1C
BC520CFE
3CACE795
3C123AA0
3DC11007
3D65C9A3
3D68D3AE
BCF6B99B
3D28527A
BD5C25C3
BE03EDAC
BD4D35EB
BD847D2A
3CD096C6
3E2B706E
BC53124C
BD109B9C
BCC8E857
3DECA921
3C9AABB8
3E1B28BE
3D678108
BD545207
3E134D10
3E1ECC1C
BC81461B
3D965B09
3E260A63
3DB82853
BC94D940
BD670705
3DE88C17
BCF1DCCC
3E104012
3E1A20A5
BD0EAEB7
BD90C1D7
3E328273
3D918FE0
BC62104B
BC9D7CAD
3D155CCC
3D8D4671
3D735BCA
BDA60805
BD460695
BDF26064
3D42CD07
3DE4382E
3C1D74BB
3DE99993
3D966460
BE025CF7
3CBF1BA4
BC028F87
3D96FFC6
BDA43CDA
BD63E684
BE01F983
BD0681B7
BD91DD90
3C8F86CC
BE12D0E3
BBDEACDF
3ADFD9F0
BD66E798
BC234758
3DC8413F
BDF22337
BDCB57B1
BCE0B99E
3DAA4A67
BC88E3BF
BDE27EAC
3E0CA680
3D48B596
BC6C4BE3
BD136431
3DC6B550
BD6DC611
BDB7E300
BD9CAA20
3DD1BECF
BD86AB43
BD644758
3E14DFE4
3DCE09D9
3DA0B330
3C13C23F
BD6ABB17
BDF88B4A
BE0E92E5
3DB82317
BDF8A1F9
3D726B7A
3CAB0D6A
BD9DA9F5
BDA3D6DE
3DA1F8E1
BD8A62F9
BCD22DC5
3D0ECB42
3E093D79
BCDE9C7E
BDC579AA
BB8258F6
3C8BF140
3DF5C5E9
BE210611
3D584D0E
3CB162D4
3DC4ADC7
3CCCF008
BD02FB32
BD91563D
BDA7A84D
3DD605AA
3DFD84E2
BBBC55C7
BBE2CC13
3D3E4627
3E0DA786
BDCF748B
BD751E17
3D7B2921
BDBEE980
BB3F271D
3E16BE82
BD3CAFB1
3D6D9D3A
3E02E680
3DE4D173
3DDC0A89
BD2AD698
3DAD52CE
3C46EB36
3C4C6B5E
BD8E323A
3DAD0041
BD978529
3C77BEBE
3E1C4739
BD995E4F
BE046918
3DB124D2
3D5DCB14
3DFD274F
BD98F1B9
BE092272
BC762FDD
BD427F71
BD27E349
3D6B7B91
BD648FF5
3CE0231B
3DCE0EFE
BC1B8146
BDEA54A6
BD5F1041
BDAFE0F9
BD4F8CE6
BD961969
3D540FCA
BC413D98
BD90C8D1
BE1AB759
BD3CE6CB
3D367BA5
BCA04418
BD9A8E44
BD9C358E
3C9F3113
BD22FE2C
BC5077FD
BD485B6E
3DBB7CB0
BD480A76
3D8A6D50
3D0A06D7
BD67A5FF
3D927B8F
3D9DB50F
BD4F242B
BD8C4935
3DFC418A
3D086364
BD915BA2
BCD6FA8E
BD1082BA
BD14DFEC
3DBB2B2F
BD6AC8CC
3D65CA52
BE1C49A8
BCCA947E
3D44BFB0
BE14704D
3CB312C7
3DF711F8
3E1E30A6
BDFCABD7
3D599131
3D2E9F63
BD447560
3DFDB9A6
3E1BE91B
3E043CEA
3C0AF18B
3D20A092
3DEEF0D3
BC7DD954
3D580A55
3E0C7BCF
3C1D69F3
3DC22FCE
3E17D563
3D491EC8
BD1AB29C
BD9FE9D4
3D0D2438
3B789756
BD92B3A4
3D685006
3D893F4F
3DC3F8D9
BDB3E28F
3E0D92D0
3DC1B90B
3DA63BDB
BDFE0F47
3D668E1F
BD1C49AA
3D39FA0F
BC35FCBC
BE03796C
3BCD1B92
BD0E3123
BD5DF803
3C3FEB73
3C97A055
BDC4FC8D
3B9E840F
BE1AAE3A
3D1738BC
BD6D1E3B
BD44F6D5
BDE4E855
3D50C4CC
BDEDF00D
3D18AE57
BE1674BA
BD55168D
BD95C1F4
BDE19A64
3CCFB7EE
3E092DB9
3D88C60E
BDFB3FC4
3DA67220
3D347540
BD4434B8
BD830F43
3D14D60B
3E05270A
3D3065F7
3D328F29
3DA5C03D
3A4C10E5
BDABA50D
3C7762AD
BCD88C03
3E250A4E
3E2787B3
BE1D90B2
BDFD333E
BD4ECB24
3D09B954
BD9E36CF
3D391637
BDB7A8EC
3D56346D
BDDB5EBD
3DE39FF9
BD0AC9A8
BD80310B
BD7ACA33
3D591C91
3E288495
BE163999
BD911377
BD2C2AB6
BBEC69E1
3D095AE2
BD3DBD4A
3DFF6B64
3DA888CF
BD838228
3DFF7EE4
3D8C2719
3BC54DFD
BD5728D9
BD8F8BBD
3DEC54B2
BDEC0224
3DA83920
3D86E001
BDD2115A
3B914562
3DD75547
BDE6D3A3
3D65D844
3D440CF8
BDBC9510
BC8250D8
3DFDA0FD
3DC5AEC7
3DF41DD6
BDA69DC0
BDB0029C
3DF5D9C4
3E104B35
BDC62FC8
3DDB46F5
BDC903A6
3D85BD21
BCDE9673
BCF72419
BD922E33
BC0EE9FE
3D64D443
BDB1CF1F
BC884284
BB801691
3E0FC89D
3D84624A
3D522373
3CFF2AF9
BB1E0F75
3DCDBD49
3DF38327
3D56DBEF
BD88BF02
BD5E5E14
BDEB18E1
BDAD1FFE
BB602CD1
BD268D40
3CFB8323
3BA3A02E
BDD32691
3DA90252
BD85CE11
3C911A04
3D489416
BDBFD2EB
3C554349
3D27AB0D
3DD8F672
3DE87A83
BD6DEF0C
BDB38F54
3DDC86AF
BDE6B0BA
BD96CAA5
3E0D03DB
BD3C2BD0
3D8E1A4B
3C8B9524
BC183556
BCC7E8B7
BCDFC1A1
BDF3E61C
3DBEAF73
BE0528B9
BD742C1F
BDFDE6ED
3D81045D
BE142ED9
BCFCD838
3D8D25EE
BC9EFCBB
BDD6B10F
BD0B50B9
BE12B30D
3CB86F58
3D3729EE
3E0B3EEE
3E0750DE
BDCD6FB2
BD23D9A7
BD4648D7
3DC670D7
3D6CCE02
3E00A257
BC55C3E2
BD88B15D
3D065831
3E0AAC55
BCC04B34
3CEC826F
BD9FD2D9
3DCFE43A
BD3D18D0
3DC2D782
BDB82077
3DDDF3DD
B9D8477F
3CC1EED8
BD978A08
BC22E6AA
BDA8D0E7
3DE1AF4C
3C5CFA6C
BCE05311
BD6C6DD7
BD3922A6
3CFED385
BD528F7C
3CB4FE3A
BD844173
BE061855
BB22E471
3D553A67
BC2AA215
3D5D4624
3D7D90CD
BDF03CCB
BA5B3A79
3E142631
3D068103
3D2899E2
3D7864C3
BDE55FE9
BDAFB67B
BDBFDF9D
BDED39BB
3D1370E9
BDA6F598
BE152A19
3DE16019
BDAAD312
BE328D54
3CD3B20F
3E262E70
3E0D1E08
3D5A8A9D
3D7EC9E8
BD3D4144
3D5FAD3A
BD55D23C
3DD832D0
3E07BF85
BE0A528B
3D2AFCF9
BD310848
3E2CA318
3CB3E80A
BE1E42F9
BDAD98CE
3D97D465
BD591304
3C82E0CB
BD475B3B
BE10149F
3DCAA7AF
BE004728
3DEFAE84
BD756A5D
3D796087
BDE65302
BDE725C4
3DFDCBAF
BD4E4639
BD92E682
3DC27E02
BD33CA57
BE11E834
BB7AA8D3
3D853B3A
BC86AAC4
3DF0F3DE
3C080DB6
3E1B8724
3D7267CC
BCD4A0A1
3CE01183
3E1237B6
3C8B44D2
BDAEF670
3DF16603
BD92699F
3E189A9D
3D39F544
BD8CDD1F
BD8D6B06
3D8D8A65
3DA57DB1
3C82C20C
BD4E6182
3CBFCB98
BDC0DCD3
BD695643
3DA11045
3C7A9C5E
BD9D270C
BDE1DE04
3D978396
BD2DE5E2
3E15762B
3DDB298B
3DB6F339
BD6AE076
3DC09D33
3E002E9F
BCADF724
BDDD4223
3CD09356
BD8814B6
BC1F83FF
3DAA13EF
3DD02525
3CFB762E
3BE2B1E6
3DC616EF
3C9BA99F
BDB4268C
BDB148D5
BC1D88B2
BD2B56F6
3D8CABD4
3D071451
3E09AB30
BC6D4A3B
BC10D2A1
BD5DAD1A
3DB7F153
BBF020E5
BE11483B
3DCC9E44
3E063470
3C3D991D
3E005852
3DACF09C
BDAE1696
BC7FAF83
BD886C3D
BD2C39A5
BD27225B
BD63B061
3C6ABE1A
BDD22623
BDC7AA3D
3DD50318
BCAC8C9B
BD4CF557
BD92BE1A
BBDFBAE6
3C3BEC95
3D9A7327
BE086624
BD862274
3D0B8676
3D9E7A61
3D414F96
3DAE0A9D
3D89E427
BBF0345B
3D011905
3D39C569
3D92A7C1
3C80C471
BD79D346
3DC6BF13
BBBE7836
BC7878CD
3DB4D59C
BD38B81D
BCA73A36
3CF44F0D
3E27B3AE
3D8CD5B4
BD7A1382
BD93E302
BD9A58FA
3DFD6E57
BC8F4C43
3E1E32EB
BD84EB23
3D46E809
3E19A600
3DFAE6F3
3D53A2F8
BD99687F
BD8F9911
BCFBE1FE
3DD3537B
BDA80BEB
BDB7A9FE
BDF4721C
BAB364F2
BBCA210B
3D8CF27E
BCA8F8CD
3DA09506
BC9D421B
BD300813
BCBBA903
3CFC7C0D
BC386CC3
BD2A2F84
BD85F4A2
3DE76CE5
3E092492
BD8CB600
BDBB6258
BDB904E1
BDD11A31
3D16A10F
BD88A37E
3C8FCB3A
3DCCF8DB
BD8D36BD
3CDD2799
BCFC37D4
BD24CF42
3D87516F
BD6AB716
3E1F3206
3DCBB1C7
BD8F0509
BCBAC40C
BD1BF691
3DA160ED
3E23FB57
BC716299
3E1A0787
BE33C56E
BD83D691
BCB4445B
BDB6F4F6
BD0CCAC1
3DA8C58C
BD0E2ED2
BE1662FF
BCEF662F
BD744B23
BDE5B99F
BD004BE8
3D5C056F
3D4FC309
3E0FC46C
3D23AF65
3DFF517C
BD49ABD8
BDB94ABD
3AFC7E96
BB802819
BE1835B1
3DF329A8
BD9822F6
BE1E2729
BD8D6D33
3D36FAD6
3D60A003
BDBEC131
BD951CF4
3DF0CF6A
BBA2820B
3DA26A3A
BCBCDBCE
BD3AEC6D
3E2A85BD
BBDBCA81
3DEE7775
3E24C870
3DB477B8
3D057B9A
BD92D7F0
BD55583C
3C5C4CFD
3C8BF9F9
BD68BB88
BCCC8168
3E08D3D0
BD31C606
BD602178
3D5F84E0
3D8C6FFE
BD5B4E4A
3CA37875
3D00FD9E
3D5FB2CB
3DB7E9CB
3D149777
3D1D59FE
3CBA5927
BE1C16A7
3E022FD9
3DA60403
BE1082B2
BD8A818C
3D36A17A
3D290A80
3BEC4147
BD900619
BC53928F
BB957837
BD08537B
BD9B1738
3DB84E66
3D07077B
3DA50BBA
BBEFC93C
BDB3DB35
BD3C07CE
3D65F9DF
3D8239C8
3A2B047B
3DDDCFDC
3D916FC6
3E108560
BE011F86
BD94E926
BCCC7DC2
BD6C0E1E
3C65F5BE
BD04A9B6
3DB5DA85
BB12DEBF
BD952FD4
BC8C8B1E
3D4120E7
3DF838CE
BD5839F3
3D00F5A4
3B62211D
BBD5B5BF
BD36AFE8
BDCA4FEA
3DB7523C
3DC01C94
3C99E834
3D9AF67F
3D466814
BD7CF73A
3C6B2695
3D3E026C
BD5EAAE6
BDC89932
3D852613
3BB0DD18
3E0C7A65
BDDDDF63
BD68FF73
3936F1EF
3D1FA38C
BD1C3DDC
BDA4F90B
BD8F7C8C
BD7FAD3C
BDBE4577
3D8CFC6A
BD4EB4C9
BE0AF68D
3D064B16
3D9704E4
3CFBDE17
BE09C0DD
3CAB17AB
3D72097D
3D549B90
BD6CDA46
BDDF41B2
BDF39AE7
BD2F942D
3CA21DCD
BDA133FC
3DB3B2BE
BC4180DF
3DD43476
3DC24019
BDD353F2
3D562C44
BDA288AC
BD55E2F1
BD870606
BC3BCEF9
3DC69A7E
3E1DDDC3
BDAD0898
3DB61E25
BD01F63A
3CB227AB
BD00317B
3E0FEB3A
3D1C7F0C
3C6D6A7C
3D9E514D
3D469B85
BD31CE4C
3D8AD037
3D84E5B3
3DC9E25A
BAD71729
3E0B2C60
BDC67C51
BDAE6F31
3DB4A3A5
BC972AD4
3D781E09
3D89B2F2
BE0546CD
BD692781
BDBBA2B2
BCE0E19D
3C95B427
BD90C054
3DA28B9A
3DDEDF56
BDDDF4DC
BD3F1EA7
BD628FE5
3DF69E14
3D8A7592
3DB69F9A
3D3CCE88
3CA4A7F0
BCEB9697
3BC8E31E
3DF470DA
3D236F69
BDBEF136
BDCB31E2
3E0C2DEC
BD9A179B
3E07F5BB
BDA39458
BD995F55
3CB9A61F
BDFDA43B
3D781ED8
3D851496
3D97F045
BC198F13
3CE9407B
3DDE61C5
3D857D46
BDBD0812
3C5502C7
3DA20439
BD904015
3D8259AA
3DA4544A
3D8CBEF1
BDD7C944
BCC7339B
BE07BB50
BC95B26F
3CCD6C85
BDB1F5ED
3D2AF80B
BD8A2CE3
3D2A709F
BE0CFCCF
BDB3E0E6
3CB910E8
BA0F8E28
3CB6CE63
BDE9511A
3CAF8945
BCA667DE
BD00C3C5
3D52F893
BDAFE573
3C55BF1A
3CA5829B
3CF6BEE9
BD8F0E8F
BD936A05
BDDBCB84
BD344702
BD7648DD
3D0F4C51
BD26D72F
3DAA4353
3C7E519F
BD79A632
3CB5A157
3DAC93C1
3DDFE973
3DE19A27
BDBE228F
3DAC0528
3D3EA6BA
BD4586E3
3D7ADD16
3E0DEFA8
3D718A13
BD5902B3
BD18730E
BE197EC0
3DB27A67
BB461B2D
BD318DED
3D5C6587
3DFE12CB
3E00B59E
BD524001
3E08DBE1
BDA51006
BD7BD277
3E0E012A
3DD1301A
BDB5DA4F
3D347A5E
BD53EC94
BD5218EA
BDA55DF6
3D84D33C
BD8BA8AC
3CEB0D14
BDAF111D
BDA20095
BD406FFD
3DA4ED52
3D5BC12C
3DE7E275
3C837C31
3CC5E51C
3E0333CB
3CFC6D29
BC86F9FA
BDF39972
3D970C6E
3DEAF547
BCBE9100
3D9F69FE
BDAB30C4
3D482992
BC97B010
BCC45D42
BD085FBD
3CAEFEA1
3DE0504D
3E0DBCA4
BD550304
3DF73FCA
3DE56271
3CBC5328
BD992044
3D8642CE
3E03CEAD
BD5116C1
3D9485D6
3DCD39FC
3D5DBD4A
3D9D8B1E
BD36E923
3DD0FD0B
BD67CEB1
BC29C48A
BD2C686B
BBCEE81B
3C5A9B21
BC14CD82
BE265F1E
3D2D8E9C
BD905D14
3DD097AC
3E1EAA54
BD8886F4
3CC56DA3
BDA6A7DB
3E1CD0BF
3D42E83A
B9810046
3C58D168
3E0890AA
BC19EB23
3DEFE2C7
3DFE7558
BDB28099
BCA7FED7
3E1B7C37
3A8F5B27
BE0115BD
BC0B9A52
BE09530C
3E1CB074
BDB7B12E
3C1399F1
3D7CFEEC
BD8F999F
BE1BD27D
3DBE08CD
3C748167
3DC2011B
3B043CE6
3DC2E451
BD1DD02A
3DE34CCC
3DF4CCA1
3DD1C716
BCDB9F73
BD8F7F6E
3D2680A0
BD51F52B
3E026DF9
3D6B1F3E
BE01485B
3D46E295
3D47C6E4
3E0DAB66
3D38FBDA
BD9D7571
BD19167C
BD6AD14A
BD66BE1A
3E23DC41
BE1AB613
3DD0C26C
3B90D941
BCF6906B
3E121A26
BE269C77
3D12E59B
3D7760AA
3D9412AC
3D94662A
3DCF8B72
3D97CB0B
BCEB283D
3C1CBD7B
BE08912F
BDEF5DC2
3DC5163B
BB9193E7
BD9D9A94
B9B766B4
BD0CD27E
BDC9183E
BCB13F88
3DC1B494
BD45A43C
3DBF9543
3CB0CD48
3DCEC32A
3D918178
3D9E461B
3DA82C6A
BDBBA9C1
3DE00379
3BB41012
BD96A868
3DC7B646
3D3CE79F
BD4214E6
BCFD75C7
BD509BDC
BBF82DCF
BDE7BAE9
BD7B342E
3D1612CC
3C3B230C
BE08BCC5
3D9DE988
3D0AD7B2
3DB26F7C
3DD47749
BD525B7F
3D4C457B
3D32C42D
BE032A6B
3E08D37E
BDF39850
3A47D313
BCC34B34
BD5D7B23
3D99238E
BD328907
3E0F0FC5
3DCF17FE
BC2B91FF
BCE3F14C
BE058450
3AC4552F
BCD91290
BDC7E7FB
3E01DE15
3DCDB1A8
BD38B7F2
BC1BEE3D
BDAECFE3
BDFA4D22
3DAE1657
3BDC143D
3CC8A91C
3DCAFF52
3BE01036
3D9A44B6
3DCDD1EF
BCC55FEC
BD967F95
3DC5A458
3A05C049
3C843C50
3C20D3CB
3D9F22EE
BD1DEE1A
3E36234D
3D7C1FA9
3D65EB74
3D5F2F48
BDDC321B
BD1D5259
BCEB1DF6
3DBE146F
BB98461D
3DD53404
BD01DE29
BDA94E82
3E1CDA0F
3CBD82B2
3C3CF60A
BC63D196
3E2DE79F
BCD2B758
3E3A2249
3DDB1CD0
3E029EBF
3DA8A82A
3D996F7F
BCF8D645
3DCDE493
3D9AC3B4
3E1F0C02
3CE6EA4A
BD5258F6
BD3EE208
3D099146
3DCD19DC
3E42FF6A
3C7B5FD2
3E316DBA
3E2877E2
3E1BA767
3C55F5F6
3D897FFA
3E3497AC
BDABDFDA
3D1D68F2
BD5CB51A
3C150967
BC80ED40
3C99F9D7
3DAB6CF2
3CDCAB3C
3E15430B
BB7A1280
BE1D632A
BE2ADDCA
3E0479B4
BD6D81B6
BD7DE132
3E3AC775
BCEDEFF3
BD0F6312
3C58CDB7
BD84DC39
3DA0BE36
BE041A6C
3D04075C
3E118BDA
BD87963F
BD36E0D0
3E1F316A
BDE33B46
3CA15957
3DC0222A
3E0B1264
3DEE578D
BD6BA88D
3E170DED
BD1BCE58
3DA563D0
3E32BBED
3D1C73FF
3E1E00A9
BE0719B8
BC157324
BDD0BED5
3CD887FC
BD3D7AE0
3CD55FFE
3D0222F5
BDCA7F78
3E28956F
BD508A44
3DD32ADD
BCF7D5E5
3D49AB14
BE0C74AB
3CF7F83A
3CDEDC24
3C557959
3D00A0ED
3D8A4A2F
BA19183F
3D95F62A
BD8DEEC9
BD7B70D7
BDFAEE87
BE3A3FCB
BD6CDA5E
3D10BDA8
3C8597EF
3D6F2938
3CAD80E2
3D9651E4
3DC9ECD6
3DFD9483
BD292C24
BD0D2AE6
BD929363
BDC5242A
BC00B61E
BD77B96D
3DB84881
3D7C56CB
BCF5CDBD
3DDD77B6
BAB84683
3D8D6BB8
BC0C548D
3C490EDD
3DB0B57A
BC43A44F
3D766F78
BD619BD9
3DED5653
3D0C5EB6
BDD50E8E
3D1ED9A7
BD8BD63C
3DE2BF5D
3D83571E
BDDE55F8
BDDCB531
3CFF8F5D
BD91EBF6
BD0A9232
3CCAA9F2
3CA5834D
BC7A6C38
BD37E6EF
3CE85FC6
3DF0BEC7
3DA489FF
3DD0D928
3DBBFC3D
3DD76437
3D916B35
3DABFF93
BD9BA7DC
3DF99DC1
3DDB3382
BD9E8BC7
3D7643B1
3C1A919C
3D12EF20
3DFA5AFE
3C97CCD0
3E0659B7
3DECA358
3E0E7F39
3D3DEF8F
3E184C49
3DFD49AF
3DA9F152
3E0EE83F
BDCFDE1F
BA10AD62
BD98B5CF
BD780451
3DA49B5F
3CEF9630
BDCF03FA
BDA424AF
3CC73569
3D75A32D
3D999B40
BDF55ADE
3D32DC2B
3C7077ED
BDB4F0AC
BD8EDE24
BBC30DC7
BDF67267
BE02BFD4
3DCD8534
BD2D679A
3D0F2FCE
BD4491A8
BBFF46DD
3D443EB9
3C16849C
3DF09F4F
BD543376
3DE74E7D
3DB5218A
3BE7DC32
BDA5745F
BDBBB120
3D38BF67
3E0D638D
395EED61
3DE4F920
BDAF0765
BC4F2455
3D112341
BD2A5912
3DBB6E4E
3D909CDF
3DDF7B16
BC85AF2C
BC61FC5F
3E117F19
BD819DD9
3D8AF63B
BD4E8E10
BC00A68E
3D80E5BC
BC941BFC
BDEAA54C
3D8B6222
BE1CECCC
3DE9E0C8
BD747B01
3D8516B3
BD6856B4
3D30F3FC
3C4108D4
3D4E8922
BDF96A5F
BD3C1827
3DA92648
3D2E779F
BCEF27AB
3D616E24
BDECF9F0
BDFAD1D8
3DBC4FF0
BDCF7DC8
3D2AD622
3D9BC153
BD625A28
BC53F098
3BD27518
3DA4970D
BD521244
BE1E0E8C
BCDF352F
3DD85DE8
BD3C64CB
BCBE0173
BDCCBDBF
BDF76020
BDA2F968
3DB277A7
3DF308E4
3DB60967
BDCB0119
3C0CF4F1
3AE111FE
3DB2E3DB
BD6C6DBF
3DF6E955
BDD1611C
3CAF7CAA
BDA9C283
3D5F3FA6
BC277667
3D2DFEF7
BD5740F7
3D4B6402
BE29D1C8
3D221615
BD38B0E1
BDBF4D03
3D64EABE
3DB2DDE9
3DF8479F
3C97B42C
3DA5FCE2
BD7B6BA9
3C14BD72
BD4BCCD8
3D87C232
3DD17BF9
BCA2F97F
BDCDD87B
3D0E7D1E
3DC05EDD
BC641F24
3DE6091A
3E17B961
BBC1FA8C
3D85CE76
3DBFFAB4
3E04F906
3D71BA75
3DBAC5C0
BDB6A290
BDB79ADC
3C4D5CE0
3C8E8C3A
3C7DEFBA
BCCAA469
3D3B2AD1
BDB3FE11
BDC3E261
3DC44E06
3D9CA048
3D5E16AC
3D8CDBE2
BAC8990B
3DA1820A
3D8E2C47
BD0BA3B5
3DFC4112
3DA07360
3CEF22A8
3C41D832
3DD951B8
BDCC3A73
3D2DFEC4
BE00DCB5
3BD9A6E5
BDE686E9
BC90D439
3E16525D
BCF61119
BE078D2C
3DCE595F
3DCC7CC7
BDB10BBA
3D30DEF5
BDB09D2E
3DABEFD1
3DC967EE
3C3AE417
3E0A22BF
BDABCDEC
BE25C03C
3E1206E3
3E0264B7
3DCD71B6
3D390A8E
3E18AF14
BD96F256
3D2F16D7
BD230A06
39EDC515
3D5DA872
BCA38C72
3E21B8BA
3D578DCE
BC78EB64
BD1F14F9
BC2667BE
BD298326
3D9D26B4
BD846C2B
BCE4BF68
3D57A992
BE287684
BDC97D13
3D80905E
3DF663A3
BDDDCD7C
3C6F25DD
3D8476C4
BDCAD8B7
3D9D8BCA
BE02C252
BC67EC8E
3E0C9CB9
3DFD00B2
BD694650
BB8265B6
BBFB2FA1
3D5EB8BB
3D8BCE6E
3E07BBAC
3E139E58
3D0ABBE9
3D99DF2F
3DC508A8
BD6AA58B
3CB52B91
BD3FF447
BD393B65
3D80650E
3C6816C0
BD9E3257
3BF14A30
BD82D853
3D851DC0
3DE02D2C
3E10E1F1
3C4C3C64
BC0581B5
3E01A9EE
BD450464
3DF85A56
3C29D7D5
3D70D88D
3D64450C
3D2E19B4
3D5D9F80
BC93B986
BDA70587
BDC445F9
3D1EE5E4
3D93AEBC
3D7D9CDC
3D0AA210
3D5C32A3
BDE83ABC
BC789F84
3D6818A0
3E254EB2
3E15665A
BDC9B738
BE160C46
3D170695
BC180728
BE0FC8A4
3D998862
BDA70BE4
BD8B26A5
BDA03E8C
3D68C10F
3D5339DC
BDF3BECB
BC0020CD
BD5DE020
3D96EA54
3E110342
BC8E0C9E
3D727D83
3DC1B4D1
3DD94542
3DA5FDC9
3DDF55AD
3E0DE6AA
3C137223
BBD623E4
3B4634D8
3CD89E27
3DD69407
BE20EB4A
BDFD3963
BD931306
39A725F4
BDEEBE55
3DC21391
BD395A3F
3DC104AE
BC95A284
3E1F7BFD
3D6F1B69
3D35B72C
3D0F6FB2
3D51F1CA
3DC5C17A
BE0A8368
3971B25F
BCDE97C0
3D7EFAA7
BDC6E50C
3C55A6F1
3D4EAA3D
BDC0D04B
3D7966CC
3DA67BC8
3D8AAA96
BD96D1BD
BD81861B
BE09EC1A
BD90EA5E
BD51D098
3D090D6A
3D9A5FAA
BDEF0FE2
BD495C72
3D9BD107
3D8667DC
3D9E8E7B
BDFD621D
3D15EA96
3D2F1F78
3D60A7D3
3D58C043
3DBD6AE5
3D8F8626
BD81B788
3BB28D9C
BCAF87F8
3DC415B9
3CDD5007
BD695267
3D96CF45
BDB0CF30
BD7FDB14
BBFEA019
3D4E37B6
BDEF0FD2
BAC9B2E7
3D25E50F
3CE177CA
BDC74CD8
BD92FF07
BC3E460C
3D2527B5
BDE0A9F1
3DABAA37
3CA0CB5C
3DD35F31
BBCC36BA
BDA1A999
3C8C79C1
3C2DED6E
BD2DD66A
3E0579AD
BBEEC7B4
3D8A9ECC
3D906D61
3E0557C6
3D8B9CBF
BD8936BE
3D33C534
BD4CDA8F
BDCC102B
3E0D7129
BC573C72
3CD20566
BD196E26
3DAA2035
3D0B0864
BD0D61B0
3DD45B80
3D098E5F
BDEC516F
3D50E8DE
3D89D533
3DAF7DE5
BC090745
3E03EB80
3D91C435
BDD6C681
3DEFFDB5
BD34EDB6
BCA82832
3D413793
BC96691E
BD9F5B43
BAFC7BE7
BD42BCC9
BD8F480F
BDB83793
BD613F96
BD4AECD9
BDB8A86D
3CE22081
3DC78777
3D36ABCE
3D07C6C1
3E0D46EC
3E0DBE12
3DA793C5
BCAB3CFA
3E2C8F6F
3D9A517A
BC94A965
BD23733F
BD7DE00D
BDA2190D
3E01DDDB
3C4077CA
3DFB9697
3E012D03
3CA28E4A
3D7A3D96
BC12F3F9
BCE571FA
BDB7BD04
3E0A9307
3DAB6C60
3E0C49DF
BDC9B3D6
3C00CFFF
BD6523C3
BD3915E1
3DEA16F0
3C776DA0
3D838593
39AF6E98
BE1D783D
3D97CAF7
3D6CAD2F
3D9F8453
BDF3645B
3D9CD427
BDD570B4
3E0C887D
BD8C3A60
BD81F9E1
3DCE1BA8
BC51F4E0
BC92D0ED
BDDF56B0
BC8EAC25
3C67CA14
BD026D53
BCB598D9
BD455DFB
3DD4F431
3DE862B7
BB17FB34
BD284376
3DC683B1
BC793FFD
BD8723FE
3CCD7E48
BC1C5698
BD29D831
3D178BB2
BD5FDA23
BB81F421
3D116E82
3D117B93
B97EF0B6
BD67A07E
3E161215
BDAE6D81
BDB00B90
BE2AF600
3C065356
BE041D80
3DC37DC2
BD9CB960
3D6BA3D3
BD312BDF
3C9A1A28
3CD5B605
BC347055
BDE05AF1
BDAA5842
BAF48375
BD7A196F
BD429350
3D42B48E
3DF7EFB6
3B8F7843
3DF798DA
3C2DED79
3C50B900
3DE06967
BD8034DF
3A9F1960
3CC35722
3DF88DBC
BC1C8DA0
3DC5F766
3DD333EA
BCAFA4F4
BCC3AE3B
BDCCB43D
3D809697
3C9753D4
BDC18A98
3CFAE264
3D7BA0E0
3DE013D5
BD6EC31F
BD7422A7
BCDCDE32
3D413BCD
3D3CAFA1
3D78322B
3D70E7B1
3D91CD82
3D5C15DB
3C9AA82D
BC28DC0D
BD7143E5
3D3F6A91
BE2840FB
BD534A22
BE1F1488
3DB26129
3C191728
BD748E9D
3AC815D9
3DCBB49B
3D990168
BCCD51CD
3CD2798A
BDB5FA8A
3C9E9649
3D5182A4
3D37692E
BC4C1E06
BDCFBD71
BC9069CA
3D8D0CB5
BDEB621D
BE1BAF8B
BD77A335
BDD1C581
BC4F01B0
3D967661
3CCCFDCF
3C850390
BD4331A3
3D3CBD88
3C9E331C
3DCEFEDC
BD8044B7
3D8F3DE9
3E0C92CE
3CF8EA07
BDD0BB02
BE17F6FA
3E2A90D9
3E06EB60
3D78F626
3D972AC0
3D79AFEA
BD9C685F
BDDC1C8E
BDA6D80F
3CE8D201
3B426DCE
3D331767
BD861FB3
3C678F10
3BC02BD5
3D3C75B5
BE0A6392
BD09ED7C
BE30CDCB
BDFE3771
3DCA26FD
3DE286CE
BD87434C
3CD43E1B
BD2D8DA2
BC844544
BD8C6280
BD816718
BDB8CDD5
BDAC7E29
BC29A327
BD9CAD85
3C760BA0
3E0F26CD
BD354B8C
3B913BBD
3DE70F46
BD572AED
BCC427E8
BD836F3C
BDBFD863
3DBA61C5
3DC6CA08
3D6EDAA6
BD9FF008
BD3F475E
BDC09CFB
3CC47276
BC975F5D
BC82F9E5
3DAC4325
BDA452F1
BDD6CBF8
3DE58B4B
3D50A08C
BDB61597
3D64D1DC
3CDA18F0
BE3B07BB
BCB65FDE
BDAF0490
BD9FE41E
BD2480D3
BA3D0E3E
BDB2DDA6
3D8C8005
3DDDFD8A
BDED0906
3C8235CA
3DD70023
BDC022C5
BC11D9A7
3D12B780
BD2BB60F
BDD05E2F
BCCF9376
BE0E5483
BC2C87F3
BD45AB70
BDC6955C
BD028386
BD614110
BDA303F2
BC09B31D
BD4AEEFF
3DF1163D
BD2635F7
3DD5C454
BCA8D353
BD4BA456
BE285F65
3D444742
BE1F6D27
3D9A586D
BD064C93
3DA53B2E
BD3227E6
BD1D7201
3DEDAD17
3D5E33D2
3D816F2B
3D2F2852
BADAE28F
3DF56B78
BD9AA109
3BB7FC1B
3DEE3D59
BC31381C
3D8FEDD9
BCF06E57
3CD3D555
BD592E09
3D88131A
3D3F3A1A
BE0EEEDF
BC5BEEDE
BDA661C3
3DF4184A
BD67EAF0
BCDB1ABE
3DC36E4F
BC5B3733
3E0F9CDE
BDABB79D
BD17C5BF
3D5A79D9
3DCBCD69
BDB9C424
3E0E20A7
BD6A353D
3D98A776
BD8472A7
3D5E5F3E
3D77E4DE
3D8E73EF
3D9B7AA6
BD45E776
3DA47BFC
3C811B28
3E097F96
BD2D7442
3D005964
3E11A487
BE045C84
3DB77A20
3DB4F48B
3BDDAA96
3E0B5BF2
BD1AA621
BDE40CDD
3DDFE8B6
3B59AAD7
3DE92207
BDF4355D
BD815B88
3E0948C7
BD0BB560
3E0789E1
3DB00BE1
BDEAE922
BE251AE5
BCFE41D5
BE016AE3
BD8C6224
BBB9C8A4
BCDF188A
BD1F30F8
BC9EF060
BC88863C
3C49F770
3BD3ACD0
BE09D4A1
BD682A49
39651269
BD284968
3D506766
3E10A844
BD17AD9C
BD6CC878
BD11F492
3DFE90C9
3CE82497
3CF2C468
3D8D38BA
BD3C0D6A
3E103F83
3E13397C
BDCA9DA0
3CC4856B
BDBAA8F1
BD052EAB
BD1EFCB3
BB086DF8
BCA0152E
3E1D013F
BC61E5F9
3D193B58
3D8CDF55
3D548DC9
BD6B5CB8
BAC354D4
3E25A3F1
BCBFC7F7
3B9DCDF1
3D3931AD
BC85D364
3D6FCF86
3DB80FA0
3E0B3D44
3DDAD0D1
BDA97364
3D9D11C1
3E1C9DE6
3CFC98BD
3E02A413
3E0F9087
3E283053
3D9047D9
3CB59D8C
3DB5CB25
3D82616D
BD22EE1C
3D2ABA5B
3E19E155
3D30D687
BD020155
3DB082C7
3E2CE826
BD86782F
3D675991
3D67227C
BCD4C89A
3DC8BED6
BC060A05
BC00709E
3D22D63C
3D716090
BCEC40F1
3D847476
3D3BE665
BC14B8B4
BD5C4E60
BD4AF2D8
BB8FED89
BD075B13
BD25B915
BDD5F930
3D1DBD20
BE0D584B
3DBBD4D9
3E0CB5D8
3CF992BE
3CB4708B
3CB671A7
BE1392EF
BE300B69
3CCC4EEE
BD199F49
BC97C3FC
3D19E704
BDFC1872
3DF790B2
BE287720
BD407581
3E2110A5
3D9B4D45
3E02BEBB
3D146E26
3D507F3C
3D4D9623
3C11AEEA
3E09EF2E
3DEF1485
3C924BE2
3D7036DF
3CD3CB94
BE2EF46D
3DE462CB
3B83B91D
BD92FCF2
3CD52DFA
BD78BED9
3C943323
BE2B1853
BCFF210D
3D2FE426
3E1C753B
3D2C7816
3DA0B526
BE16570A
3DEFF46B
BD1C491C
BD16E3C5
3E29255F
BE064CC8
BD7E7114
3C322E3B
3D7CB37F
3CFEFC5F
3D96ABA7
3D9A6854
3DBB1104
BDC2F388
BD860A6D
BCBCB6FB
3E0FA2C9
3D82AF90
3E04322F
3D3B07D3
3E0A41AE
3D6EEAF7
BD0F1663
3D0C96A7
3DC105DE
3A04C8A7
BDA3D1CD
3E0C8D98
BCA8D2B7
3E15EF44
3E098F03
BC578766
BD14B757
BD9F986F
BDE427B5
BD0FE436
BDA0962D
BD0C3E7D
3C117B88
BD2F6D0B
BD2A9ED8
3D8F7CE6
3DFCBB8C
3CCCFCE3
3DCF5EAB
BDD981A8
BD90034A
BDD65BFE
3D440D18
BD43749C
BD76952D
3D79938A
3CBF2A17
BD13C6E4
BCB0DA63
3DC14AE1
BDA32CAA
3DD008B4
3DF3257B
BDF98FE7
BC6BAD83
BC72737A
BD11C0C2
3D4FAFB3
3DD6AAD0
3C5F2158
BDB5B5DD
BBFF2E5E
BDCB175B
BD0397EA
BDB6DC14
BCA4FFC9
3D852BB4
3D8E7C82
BDAC6024
3C4D0E51
BC6B381D
3BE1C6DA
3C9D007C
3D35F2F9
3DEE3A63
3AEACABA
3CD6B015
BCA2D811
3BBDBF3E
3D1AFD6C
3DFFF204
BDD36A39
3DC064DF
3DEAFDB2
BE140B34
3DDD6C3B
BC81B679
BD5652DB
BE012A43
BBF5A040
BC553DF5
BD384A72
BD66AB96
3D4EF33B
BBB6EA62
BD9CDB3D

