BE3E20BC
BA9A2200
BCA39C2C
3C322643
BDE76F35
BD351CBD
3B6AA8D6
3A9EA03F
3E18ACA5
3E44BAEF
BE2C37F5
BC05CCBE
BC9CE0EC
3B59BFFA
3C2E8915
3E4DD053
BDF3779B
3BA6ABE6
3DB233B7
BE4801C2
BE3CF807
BE3B0993
BE43C0C6
BD3DC7F2
3DB12787
BE06C68C
3E83D64A
3E2B0D75
BE515001
3D9B5B29
BD0AA443
3DA9C556
3E0BE4C1
3C1FD12C
3E3068F5
BC281802
3D0015E5
3D18C09E
3C6A4AC2
3D8E711C
BE138484
BD0A987A
3D85FBF7
3DA6F51C
BCBDE137
BD8513D6
BE00D494
3DCEE26C
3B8547BE
3D08052A
3E2F50E3
BD47D821
3DD25D74
BDF08137
3E044BED
BE0AD8AC
BE6D9FC1
3D0CAB39
3DB84FCD
BDFBEEF5
BD634336
3E279A7F
3DE66D39
BE3641D3

