BB715293
BDB02925
3D6FE68A
BCDF19B6
3CA08B25
BE05618B
BDEE0A15
3D185691
BDA88044
BDA5FB6E
BDBAFC24
BD7F5444
BDFD5D09
3B2C2461
BD02AA7A
3A9C1097
BB08A0CE
3C5DF16D
3D373E0D
BC2192E2
BDCE549E
3DAC113F
BE12FE1F
3C912150
3DACA581
BDDBD3DC
BBB97E7C
3D416692
BD63A1B8
3E1222DD
3D032086
3DAB5E4F
BBFD7678
3DCD12DE
BCFED8F4
3CD8E7B8
BDE52334
3D8DCBCE
BB81FEC8
BBB4C6B1
3BB7CE78
BCDFE279
BCB7FEF0
BE1D4F63
3D13C55A
BD65AE50
BD7EAFE4
3DE2E426
BD4059E8
BD2092A7
3D75CF9B
BCABE3AE
3E25A65E
3CE8452E
BCD05583
3D8C373E
3DA88830
BC5C6BA6
BD8A6012
BCD865B8
3E0826E5
3CECDCF8
BE166C68
BE030C57
BD8E272D
BE34D262
3D7AB789
3E13AAEC
BE13585C
3E0433A5
BD4E49FD
BDB054B0
3CF393EC
3D553823
3E09CB4F
BDC07B08
BD558E07
3D6121BE
BDA496B6
BE1346EC
3DF37E1C
3D676A6D
BD9ABEE8
3DBC2EE4
3E15850A
3B641BF4
BDA0C202
3D122C32
BD96EA25
BD7252DE
3D2A14CC
BD949DEC
BD414664
3D596026
3D64223C
3D957CAF
BE006518
BDC1B057
BD67EB44
BC9A7ADB
BE074991
BC2583BD
3CEA7158
BD10BC96
BD698C79
BBF657A0
BE0B4A34
BE0A9EA9
3ABD5C6C
BCA4AB66
3C4691C0
BDE72088
BE036410
BDFF1944
BCD41617
3DA554D4
BD46F04A
3E0BF490
3DACF47D
3CC19DAF
BDD75A84
3DA76754
3CDB1347
BE01F86B
3D84D867
3D645100
BD9F2A7C
BD404CFA
BD93AF51
BDD909A8
BC914314
3B3E3789
BD50A17E
BD2023C2
3C65E460
3E05EF1B
BC86F9BF
BDB8A2C3
3D790123
3CACEEC1
BE03E271
3D925235
BDFC9FE9
BD9B571E
BDD29783
BDE25C7E
BCA21B33
BD062889
BD8F8F55
3DAFB9DA
BDA82AA0
3CD54973
BDAD44BB
3BB46374
3CF13C3D
3D2F1386
BC4D1491
3DA837E6
BC866DD3
BD84F4C8
BDB07FF4
3CCAE3E4
3D7451FA
3DB54D2B
BD9A9E43
3C06F7CC
3DB4DB26
BD116B70
BCD9FDF8
3DA41B18
3C0020D7
3B330957
BD9396F6
BD8481C0
BD840E69
BDC418D7
3DA38F03
BD258055
BC74AE5D
BD8A6AE7
BC868068
BC7EFC2A
BB87296A
3D70B651
BDF7B2CA
BD737AC4
BD5FDDFF
3D8B39E1
BE01BF02
BE053525
BDE73832
BC9A2FBC
BDB3DAD9
3B7829F3
BDEF1352
BD514B57
3C950A28
BC8D1166
BC59B4BD
3DC98ECE
BDF95C14
BD1BB593
3DD3EB10
3D479B4D
BC122C27
BE10A697
3CBCC33A
3DC0C584
3D8194DE
3CA8AF8C
3DB604BA
3D10C890
3D51DF33
BD5C3756
3C56A325
3D902997
BDDB837C
BD1F3217
BDA9CC36
3CAB5407
3C7C68B1
BDD63344
3D02D78E
3D03BE69
3AF21709
3DE81F5C
3D97DEF2
BDBB0359
3E0AF49E
BC8E4634
BD6C0742
BD6FEB15
BDA418BD
BD9C888A
BD9D8978
3DF75173
3DC05E72
3DD9D17F
3DECE7BD
3C09D74F
3DA1B705
3D834C6C
3C84BBD1
3D2B9321
3DF31CD4
3BCA2FE4
3D13302B
3CA53A77
3DA13D4D
BC269327
3DBE4442
3D32C6EF
BC77244F
3DD68A6A
BA6F6FE5
BD8D90EC
3D90D600
3C8D6239
3D821BAE
3DE69DB8
BDC2E6C8
3DAF1032
3DE6F626
BDC82BFD
3E2F4FA1
3DC0F7BF
3C7D3C2B
3DF53C99
3D18A7B2
BB08193F
3D55BAE0
BD64F616
3D885081
BB3548CD
3B8AA408
3C622D06
3DD90504
BD634FD6
3B71F424
3DD3A5BE
3CDB449A
BCB34BF2
3E12E237
3E14B9CC
BCBD6277
3C3550FA
3DB81856
3E08368F
3D9A2A58
3CBB780B
3DF62E98
3E1B4DEE
BDAC89CA
3CD28497
3E0D14D7
BD9319E7
3D6B1804
BD99FC18
BCF66120
3DFCA78B
3D842D11
3DEA8181
3CC1A09F
3D06FE0C
BD487BAA
BD9DECCB
BD8128F4
BD5F469F
3DFC7B61
BD9E6A0E
BD8B8921
BCCDFA6A
3C93D62B
3DDA4F95
3DD94910
3DB63665
BB705390
3DC34BDE
3C3367EC
BDC28A95
BD0D755C
BDA8F038
BCD9F971
BDB9A225
3DB021EB
BD7E377E
BC1CA5DE
BE0D416A
BDBCAB9B
BCC407BC
3B49DFDD
BD556B14
BD07E1A9
BD737EC8
BC06A47F
BDAAB713
BDA5FE0E
3C422879
BD5ADD56
BC76FF3B
BB2B0527
BD815141
3CD82FAC
BD51F5F7
3DAB1192
3DDEEC4E
BDAB2317
BD6FBD55
3D59BC72
3D2DFCC6
BCD92139
BDACA0C7
3D8E2BF0
3CAC6452
3DA396ED
BD2B7A14
BDB309BB
BD013D2F
BD1B227B
BDB6F2F5
BC2D35EE
BDA73E4B
BD899F89
BC928EA8
BD6F87D5
3B97D29A
3D7134A3
3DB79193
3D24E971
BD494C3A
3C134933
3D7EEC6A
BD88056E
3DE3EF3C
BDCC6739
BCE58A9E
BDA56A8E
BDAFE055
3D28FFF9
3D4D529C
3E033A62
3D370C49
3CF3080A
3DC88145
3D1BA736
3DE8B5BF
3CBECEE3
3C5C2875
BC24B891
3CB97105
3E0A1430
3DF115ED
3D3FD4CC
3DC2C5D3
BCFBE29F
3DE09AF9
BD045F15
BD4CF608
BDD8D3FE
3BD18B38
3D42EA8B
3E043A4B
3DCFB4FD
BDB2762C
BDD06A80
3BB99E72
BE0FF2C7
3DD6C283
BD6D7206
3CD5D961
3DDA4B41
BD9C7B74
BDB72F65
BBC72BB9
BE0C54EC
BD445B9F
BD83BDC1
3BE98743
3DB1419F
3DCCD790
BE04D274
3DB54E7A
BDD777E5
BD1F8086
BD8B3A98
BDA453C1
3DE938D2
BD93063D
BDF93378
BD513F12
BD361E98
BE0304EA
BD1CC909
BE1828ED
BD88AEDA
BD997309
3DA69AA3
3DACB730
BDC554CC
BD7443F2
BD2B8A1C
3CD80A28
3D6FDF31
BD747654
3E040E84
BC813AA3
3C96D707
3DE124BC
BE0B7F85
3C411F5A
BD731B18
3B9B9DAB
BD05A05B
3D24D82C
BC0EC759
BD642251
BD90FC02
3DE85B59
3B7B2E8A
3CE66A52
BDD76B5B
3D1A9A9E
BDA69067
3BB69238
3DE746DE
BBA1BB11
3D9931C5
BDDE1BBC
3CA28B6B
3DF0ECC1
BC617607
BDC5F589
3D505A1D
BC50D3AD
3D69D9A6
BD44F171
BDC44EDC
3DB3F692
3D694A84
BD804828
3D3015DD
3D916E6F
BCEC6DED
BD58FD82
3CD2903B
3D564AF0
BBF27B48
BD013169
BC2BB7EA
3D0BFCBB
3D92D82A
BD3AB825
3D4A8A3A
BD6E5AE2
BD37EFE9
BDCF6CDC
3CAF856F
3D9B5CB5
BD24B08E
BD7B678A
3D675521
BD2A9387
BD45432E
BCF51769
BC1DFB53
3DDAD966
BE08186C
3D449CF0
BD6262D9
BCD705B6
3C038FD7
3CAA1106
3DDEE1A0
BC55F83A
BC6DF511
BD47FAB6
BD88905D
3CFB514F
BC8878DB
3BE028CA
3D753965
3D6BB243
3B870228
BCB525EC
3DD81FCF
BDB56E28
BDE558DE
BC9D5F57
3D99D1BE
3DD3166D
3D3A4571
3C6ED698
3DECDC81
3D75B9B3
3DF04CA7
BD7B7B69
3D2D9341
BDA16BCC
BD98C885
BD929908
3DE1995B
3DC2443B
BDA2CD1E
3C9D0422
3BB61A84
BD17A49F
BD3F2321
3E0A98A3
3D8B8A3F
3C9CA0E5
3BFA8BF8
3E05DE44
BD9A2BAB
3C7B99FF
BE1C23D5
BCE67B64
3D8E6D74
3D198867
3C36ED72
BCD3F8D1
3C423712
BDE83AA2
BDB87720
BDF15FC9
BD636443
3DC0764D
BBED32C9
BD95FB17
3D59E6B9
3C669246
BD5C6CB5
BE0568D4
BDB37D86
3D8F5E4A
3D9828E8
BE14B270
3D959B4A
3D535B95
3D26EC2B
BDDB8A07
3CF100F9
3D77B533
BD72828C
BDF922D3
3D23AB1B
3DC6E55F
BCFF180E
BD6AA08D
BD9B9A80
3CCB7B4E
3E02CA8A
3DF54FDD
3D4D1CC9
BD931B41
3D1DB01C
BD487092
3E093E22
3BD1B2E6
BE182CED
BD057D02
BD97F6DA
3D980044
3B2015E0
BC997460
BD056946
3D85306D
3D7D2748
BD8AFDC6
3DEEDC72
BDF70DC3
BD5A38C1
3D9EB0C3
BC08F857
3D0C535B
BDCA8BA9
3C836B14
BE06DD53
BDE9F57F
BE04A266
3A481832
3CCF9FD6
3D6FFF04
3D504205
BC098CD1
3D70BA48
3DB71B15
3D8E717C
3D4F39DA
3DD8DB66
3D88EE06
3C504984
BDA5B7BC
BC7A38EC
BE04FCD0
3D3406FE
BD61A3EA
3E304070
3D5E2A85
BDCD750E
BDB0F340
3E0B47A6
BDD68429
3DAC307E
BD68C869
3D6D3570
3D88E9B2
3D5C3888
3CB0648C
3E15C299
3DDC3D29
BD14F20D
BD7C7135
BD6FD898
BD9E434D
BDEEB06B
3D985AE3
3DAECF30
3D681609
BD9647A1
BDD49D70
BD10DB4D
BDF19007
BCAEEC42
BDEEF2AF
3C01BDE5
3D40CA73
3D9CC3F1
BAC70B17
3D5DF066
BD1A761B
BB9C3F66
3D5D2BC2
BBCB22A9
3D2A7CF1
3D8488BB
3DBBC1C5
3DACE797
BDAD317F
BD00A318
BB5BFFC6
BD717E90
3D3CEB18
BDBAA2C9
BDF74C04
BDD7BCCD
BDC2A277
3DBAC5D3
3CDDC66A
BCAF32B8
3D84DE6D
3DD1EE38
3CBE6D4E
3DA9B278
BD6FB7DE
3D3E5B65
BD85B44F
3DDE80D6
3DB43314
3D8C14B6
3BEA0268
3D99C5D6
BDBE6885
BD9A45C3
BDD16AC4
3C1EA08A
BDCBC352
BDDBE6D6
BAC72A4C
BDF34CDD
3C950E04
BC65392A
3DA2E9E8
3DCEB645
BBD13857
BD57886A
BCFEFBD9
BD9F2074
BD00884B
3D68D1AB
3DDD97B8
3CB5BBE4
3CC62C44
BCD0117B
BD27C0AC
BE163AB6
3D8BC9AD
BD92D110
BD2BEBD7
3D53E991
3D8F3910
BD2E2A3A
BD6B7D0E
BD5BC835
BC0F4807
BDB3A43D
3D79C236
3C177E41
3C1C679F
3D9891DD
3DAFDF35
3D777730
BDC342D7
3DA859BF
3D9A9812
BDB56630
3DC8E774
BD67A65A
3D8AF43D
BD8B790E
3C3DF87E
BD1996E8
3DE0A6C9
3C1BB797
BD281332
BD0BBB8B
BD0DCB42
BD68D138
3CFFF7DD
3D8C4285
BDA3E8E8
3D6D4573
BDEA4813
BDF9D187
BC578B22
3D3B1629
BDD85FE8
3D9F4561
3D99532D
BD66831F
3D67004D
3DA2435D
3DB9F884
3D334450
BD3F010A
BD753B33
3DA8F18B
3E0C3546
3D5E946B
3B861228
3D5B9817
BC2D67B7
3CE2FDF7
3CD2E82F
BD8E1DCF
BD76F7D1
3CA1FFDF
3D8E273C
BD32A935
BD44419B
BE2BC3DE
3D9CEF3C
3D461D89
BD977472
3DC22515
BD08E37C
BD787F53
3DCBE83F
BD44AB9B
BDEAA924
BDA432B4
3D541076
3D80C2A7
3DED25D6
3DDEC13C
3DC1B373
3CD8BE12
3DCC5AA2
3B9EFB58
BD419567
BC849E1F
3C71265E
3AE040F3
3E009BF2
BDB50589
BDB7EBDB
BCFF2189
BE31F8C0
BD8E067D
BD275FCB
BD30AD77
3DF06F0F
3E0B150A
BC6A51AD
3CCCE4CB
BC3FBA55
BDE51EB6
BBCE5929
BD823676
3D9F8AAD
3E07BA71
BD5B566D
3D104154
3D0109F3
BD83803A
BD803817
BBB8BB73
BDCB5143
BDA191B6
3D34C9E9
3D5BC236
BDBFA8CD
3D81569D
3DC6B2FC
3DEA0166
3C534B57
3DD341C9
3E0D9C05
BD99A757
3E00BAD4
BB0EA118
3D939D97
BD1CC802
3BF12BBC
3D8CCC58
3E118179
3D6BB5D6
3CA58EAA
BDD80271
3D68E841
3C43DE67
3DE58E6F
3D9537B0
BBCEBE14
BBBF0DDD
BD78DB7C
3D5F0063
BD168E37
BDD7BF0C
3CF5B2B5
3D8E3DC9
3CF2BD97
3D9E4851
BDE520D7
BD961C0A
BDD1F74C
3D059CF8
BBAED845
3C9F2C70
3C3ADCEB
3DAA279E
BD009B3B
BE08BC13
3D9D7EE4
BDCA7610
3E0CBB52
BE021FF3
3D04D387
BDA3DA67
BDA08C46
BD55CE89
3DE26DA3
BBF31C17
3D1F90E7
BCAF01F1
BBADD09E
3DAF05E2
BCDF9BA7
BD5E994B
3D91F804
3CBEA00E
3DF8442C
BE068266
3D3F32CB
3E0BA746
BD274BA6
BDB24662
3DF3EE78
BD0EEA49
BDAAC608
3D8ADC75
3DA7AC16
BE1F1508
3D8CF7BB
3DFB898A
BC471D4B
3DEA41AC
3DE08653
BCC204C2
BD48B4D0
BD7A62FB
BD1D41BA
BC544775
3C0FA7DE
3D9B79C9
BDBF4EA3
BD2DF4B0
BDC33898
BE0F316A
BDF50593
3DAEE0B3
BD3E8BFC
3D9A449F
3D6426C1
BDC9C6E7
BCC3E95E
BE031969
BCAD24D7
BDBE1828
BE0436AB
BD1F2C23
3C733EE7
3D82C431
3DAE82C0
BCE4F208
BCD6F61B
3D3952EA
BE1BFC1B
BABDE3FC
3E046C21
BCB5D0A7
BDA8831F
BDC1DF6E
BDAFBE79
BD2CC31C
3D96B97B
BD4CE6AE
BC5B3D9E
BE17D8C8
3E003C08
BD817D63
BD8C2228
3D96F619
BDD9A6C9
BD8C891B
BDA240EF
3D7ECDB3
3D9A6AB4
3DB0F9B1
3CB6F3F3
3D853D5B
3D9975C2
3D520559
3E1BB6D1
3D092F59
BDA16A3C
3D739F44
3D566900
BD860B02
3D50AF48
3DA9787A
3CF874AB
BDE93450
BDA93F7F
BD8A9056
BDD7C7DC
3C5FAE1B
3D3A5B30
3A4F24C1
3DB9F85D
3DFF483D
BE02230D
BD12EF94
3DB873DA
3DEDCCC9
3B59640A
3D02C740
BD14C9F9
BDA32408
BD6961E1
BDD7ABF4
3C32045F
BDC7AD4F
3DE4F965
BDAC0DBA
3DCDF022
3D9F9E05
BD83BC16
3D0283A3
3E0DE3FD
BDA5E953
3DBA3DC5
3D1435F5
BD9287CD
BC835B19
BE141952
3D0A450B
BDD4882A
BE057AEE
3DB34887
3C717AA1
BC12CBF5
BE103B0E
BD502470
BBF704EF
3D0139C4
3DA4C252
BE0AD322
3DB8BD00
BE17A094
BD45E61E
BD8A0649
3D879539
3BF6C544
3D976D77
BDE2F9A7
BE0C2FA7
3C92C70D
3D587D17
BD373696
BD89C191
3E0BAE00
3DCBA420
BC30B453
BD94A523
BD0D522B
BCE11402
3DD1B972
3DD97F76
BD39D323
BDACDC35
BD73BB41
3DDDB58D
BDF7B932
3DE0A7A5
BCD7E300
3D47092E
BDA66FD6
BD92C06B
3D9B656F
3E2058DE
3DA1B08A
3DB61B2B
3D8E339B
3DF73704
3D97E543
3C15AF7F
3BD28761
391D08E5
BC76C4AD
3C02214D
BDE66B3C
BDF66E81
3D1123AF
BD02033D
BE144C37
BD54A175
BDF94C2B
BD3BFB61
3DDD375A
3D87BDC4
BE15EC1E
3DE8BBB1
BD915B1A
BDDF97E4
B9AD0A90
3E0266C3
3E0C40BC
BDE5796D
BD135F33
3D7B6C5D
BCD477E7
BCD3693E
BD11B66E
3C5C01A9
BDB5341E
3CE5E974
BD4D6FA8
BD3F9F48
3D09DE8E
3DE0301D
3D23EDBB
BD33F8A3
3DCB60CD
3C8A419D
3DD7AB0B
3D5BA228
3DAE1E70
3DA75E8A
3E0B80A8
3D6AB02D
3D57D237
3DE3C12D
BDC53257
3D5F135E
BB8759D1
3E0D9107
3CA66F86
BD4606CA
BA4653E2
BD6E315E
3DEB3F6D
3E04191B
3CDA27B9
3D943F58
3DBE3A29
BCE3B6D4
3D96472C
BA23A968
3C355FC9
3CDD7D03
BDB7D98C
BC31D067
BD85992F
BDA88CC9
BD97950C
BD9A7637
BD8C4B6F
3DEDE9EA
3B983BE1
3D0744A3
BDAA546A
3E0939C9
BD80E21B
3DA2E13A
3C8793BD
3B154E05
BCF88649
BD3BB710
3D600A82
3DF4BB12
BC2289C3
BDED7AC8
3D4107CA
3DC27F44
3D8FB722
3D514C89
3D912EA8
BD8436D0
3CA530A7
BDE6AC7B
BD1A3E14
3DBA8A40
3D5F0BE2
BDDA7102
BD6A6965
BDC3B0F9
BDCF7A0E
BE15E008
BDA63F44
3C315C99
BD308B86
BD5C0DF8
BDCE93DC
3DD7758D
BCC31863
3D67FD85
3DC942F7
BDCF1E95
3E07E7CB
3DDBE27A
BB85547E
3CFB35BB
BDB5238E
3D2F17AD
BDC8BE01
BCDC04AE
3D8FC2B9
3D889F76
BD318AA2
BBA7189E
3DAB3D10
BDD640A0
BE0105C7
3D8E01BE
3B55E829
BDD40F7F
BDF89F42
BDA97884
BBD965CD
3D704E7C
BD983CCB
BD161E02
BDD6FBE0
3C7E0BEA
BBC88E24
3DE1134C
BDF4D1F6
BDFB3D06
3CCDD07E
BCCBAF51
BE0F7D0E
BE02BBD8
3DB24EBB
BDD416EF
BDE5C9EA
BDECF3ED
BD4EDA7E
BD57C8D7
3D1AABC3
BDE2E987
BD89DA37
BE0C9DB9
3D973875
BD91F37B
BD30040F
3D8550F8
3C2CC2AC
BE205FBB
BE33B046
BCD0C773
BD5375B1
BD056082
BD256578
BE0745F0
3DF066A8
3D33257C
BD81FE1C
BD30BB44
3D0916FD
BD8B3B1B
BD5A8E39
3DF42D7F
3DC94D52
BDC99B26
BE0EAAC7
BC7A47C5
BCC03F0A
3CDDB268
3D960C7C
BE27B60C
BCBF8AF5
BD867D6B
BDD5A07D
3D2A8631
3DBD41F5
BD3C60B9
BDCFA408
3D5D1824
3E04972E
3DC965AE
BCE7EB2C
BBAF7E88
3D0E1BBA
BCA3970E
BDA7300B
BDE01C6C
3DDE48D0
39E4FA40
BE104A67
BD52F957
BD80CEA1
BDE236D7
BD272378
3E1943A3
BCE46418
3DA6572F
3E13BF7D
BDFE6767
3D06D89F
3E00B446
3D5C1DE0
3D51A702
3D3F1227
3A803545
3D13A102
3C407C5C
BDDEAA37
BDA771B1
3E0364E8
3D83C27C
3D0C7EAE
BCCB4203
3CE9E77A
BD779868
3DC9D036
BDE3B938
3C46BC07
3DDDF824
BC77504E
3DCEE4E6
3DE611CA
3D848803
3D50775F
3C5DCF1E
BDCF3A29
BD7E607E
3D9D3071
BD8A3524
3DC90C9E
3C96FF56
BD045143
3CBF64A5
BDA52D48
3DA38D11
3D1CA01F
BDB4F468
3C27B9A3
BCC3CEB7
BC1E496C
3D4E9F3A
BD7107DD
BCDB3B04
BC985247
BCD812F1
3DF83A34
BD522DF8
BD5E5085
BD3129DE
3D7295FD
BD02B8F0
3D89D5FB
3D31BA82
BDEDD005
BDB31110
3E19B531
BDC0D4BF
BD0EF198
BD63D2BE
3D0CFB28
3CEAB48F
BC068987
BE064B05
3DF32A10
BCFCDEAE
BB7FCBFE
3C984170
BC8A9514
3D95509B
BDFCCDE1
BD041E98
3E108960
3D43058C
BD775F37
3D65BF8A
BD7D4200
BD282698
BCEEC97C
3DB2311F
3CD9EA07
3D3AFA5A
BCF0A4F4
3DBB5778
BDA5E78C
3D3C4D89
BD75EA93
3DBF5229
3C978436
3D028853
BD6941D6
BD3F53B0
BDC60FAD
BC38F76D
3DBD8B5C
BD9BF03E
BD5E3222
BC4A1888
BDC32ABE
BD023C40
BD16F5EB
BD0102BA
3D4380D9
3E04143D
3CA47A23
BDD01B6A
3D913E3B
3D7D3151
3DF05648
3B73663F
BD88F675
BC40B4A6
BD9ACF0A
BD3B32FF
3E09FE96
BC90CBE5
BD892079
3DAC9CA4
BDC39BCC
3E0910E7
BC119B53
BBBF025F
BD9587FB
3DD4CD3A
3D10590E
3DE85494
BD52D301
BDA81B8A
BD2AF2B8
BD533887
BD62A89C
BDDDCAF0
BC4D7D77
3D8D509C
3D9515DC
3D792461
BD449A16
3D5B4823
3DF4AF57
BC307198
BCE0D776
3D8A58C9
BCA035C0
3D990DC4
BDC577E8
3DFE9626
BC89B560
BD9022FF
BBB95D44
BD47B9E0
BD111033
BDD08A26
3D1B5C14
3DA7A6FE
BDB01888
BBED79D6
3D88364C
BD275AAD
3D20D982
BBF631F6
3D5B2FA7
3C7D748A
BDAA2C9A
BE06C6D0
3D02A826
3D689964
BD1FC5FE
BB835A12
3CEF298E
BE033F74
3E000BC0
3DED4807
3DAB8EB3
3DCDA353
BD970D51
BDE06051
BDA84F9C
3D9337D3
BC88B246
BDC9AF1B
BD9DEFD2
3BC56321
3CEB7391
3DD6B6C7
BD894964
BD610328
3D5F4F20
BCBC7D34
BDDE715C
3D6CF150
3DAFAE7C
BDC37A96
BC3F5368
BE0CDC6D
3C969A1B
BE0896DB
3CE0C6E5
3D910440
BD74ED3A
3C27509C
BDBA4A7B
BD91719F
3C385303
BE09F65D
BDB8FD33
3DC173FA
BD592EDE
3D72B9C6
BB02D054
BE005E4A
3D1355C0
BDE8E99B
BDCCCA51
3D55F0C8
BD07853D
3DBD6859
3D78C3E9
BE143796
3CA4B66E
BD8DF412
BDAF74FC
BCA9DC78
BD9DEE88
BD006C59
3CC32B7E
BC7EC7FC
3CED678D
BDD52679
3D952EF0
3C8D7158
3DA79D27
BD837C11
BD9D7024
BD13FF46
BD5A6190
3E19066B
3D775ADD
3CEC1252
3D4D75ED
BC9255E3
3E01761D
BD356E1C
BDCB06A0
3D6AC040
BDD3FC9F
BD2A704C
3DAAEA4A
3DD11A25
3CD17228
3D1B95C3
3BDECD55
BDDD6764
3DA36E17
3D18D97B
3D50A0FD
BD89AB47
3D28C6F6
3D0847E0
BDA90613
3BAC4EBD
BD6CDD9C
3DB3981D
BD8AE488
BDC76BFE
BDA8D304
BD8553A8
BC392007
3D151E35
3D54FAFF
BCDA512A
3D4FC5E6
BCA459A1
BCDD94CB
B96047A9
3D585E18
BD0B3ED8
BD49A223
BD48012B
3DBAEA73
3D89F444
3CABED19
BDF23CAB
BDE56B1D
3DA45A35
3DD39F4F
3DA65052
BCB33D54
BD7422B2
3DDF1D24
3DF1FA62
3DA8F52C
3AF4C031
3C0B79FC
3DC2C7AE
BD87B24A
BE0AA278
BD96CC45
BD5FA418
BCA2B11A
BDE38C39
BD692D7B
3D9C78FB
BDF4DD91
3D896D1B
3D9E189D
BD380532
BDCCA832
3D8587DC
B986DCD4
BDF6E3CF
BD5BD5C9
BD646DC6
BDD44A28
BDE80A3D
3DC04047
3D5A7A12
BD3E55AE
3D972D49
BAB89862
3BAEF993
BDE069F8
3D3534B8
BD22BCB9
BDCAE1EF
3C96BAD8
3CC408F9
3D3A2C89
3D86FBF9
3DCE1769
BC27DD95
3DD89E71
BD0A1BE0
3DB40952
BD88909B
BD88A93F
BDA4EE2A
BDA7F380
3D4FF6DB
BC344FFE
BD95EDB5
3D01E0D3
BD96D50E
3C20A490
BCDA5EA1
3CDFEB63
BDEBD3AD
BD3FC14C
BD05AAA2
3DA6C903
3E022DC4
BE0777FC
3CB7DB08
3D5E0389
3DB6C2C8
3D466918
BDD69552
3DD85381
BDE6AC0F
BD5222D5
BDBCCB8C
3D7477DF
BD44F02A
3CFCFF0A
BBC24926
3D038AA7
3D81FAB7
3CF62C82
BD2E106F
3DCBB479
BD8D4DCD
BDD59F14
BE0DF29D
BD63376D
BDAEEF01
BB2974AE
3D7B7351
BE0F342C
3DC848B7
3DD682A3
3DF67467
3CE413D1
3D451C62
3C2F60A0
3CBC9E77
BD5D67A7
BCD7F753
BDA72594
BD93B63E
BDAE5A8D
BDBB3390
BA69B18A
BCE26A73
3BA448CA
3DC3010B
BD399D28
BD14CB74
BDDB5EF0
3DE80DCA
BDEDD3ED
BDB64624
BD364D34
BDB923B0
3E08E7AE
3DBD6233
3D5E4BC5
BB5118B7
3C10D9ED
3BCE4736
BD773093
3D3F3F81
BDDD2337
3DDE9C39
3CB196EC
3E4E2D95
BD928439
3D16B9C0
BC9A8963
3D93FA5A
BCB88CC9
BDBBC7E7
3D1BEE02
BD8B14E8
BE064254
3DE970D8
BCFBA67F
3C825814
BC49C75F
BD510D0B
3B85787A
3DC2543C
BDC8E471
BD770403
3DCB51E4
3D9DDFAF
BCE261CF
BDC8E49E
3D9F7E9B
BD94A81A
BDFA3424
3D79C8E4
3DEDD2F2
3DA463CA
BD612803
BD8337AD
BD0CEB8E
BDE8AB77
BD97DA71
BDCDCA9D
BDD758F1
3CD97507
3DEE9AFA
BDFC6A74
3D7F57A7
BDE7AF2E
BDEED778
BD1E0046
BDADB6E9
BD0292E2
BBA5D943
BC1E5368
BD9F4D0A
3DA132C5
BDE4C562
B97FDCF0
BD6603AB
BDDC16EF
3D82C3FA
3D4AE70C
3CB7180A
BDAC6904
BE08E77F
3B8CD15F
BD0530DF
BC4C36BA
BE093114
BD1A62B8
BE13B75A
BE16CC4C
3BACD58C
BDF91CAE
BE021ACC
BDDF7CA4
BD8B2C15
3D7B3291
BDC9BAFE
3D002534
BB47360A
BE0C0645
3D4F9983
BDB849CF
3DB11C6A
BE0E4652
BD7E6AB7
3D48D699
3D509442
BB64A98D
3D218762
BDAD3589
3D019FD5
BCEA3CBF
3D0282C4
3D4D73C4
BD679DD1
3DA4E773
BD831BCA
3D8626DE
3D33BE30
BDD11728
BD73F8EB
3E07422B
BCA73BE4
BD802486
BA280A20
3C671BC3
3DD0CC13
BDA81376
BD5C59CD
3C1E1C80
BDE07D78
BD97621C
BDD88E00
3D49D9B6
BD534BB2
3DFBBD4C
BDA8F2D4
BE0EF557
BD6F8E53
BDEA195C
BDB7B140
BD71CE24
3CA55610
BCB078C4
BC870F53
BCB45592
BDBFCF67
3DCEE41C
BCBDF168
3C1995E9
BD12203E
3BFBFE13
BD9AA41E
3D9D4F75
3CB3D2D6
3C9CD020
3DD970E9
BE0928CD
3D2EDBA6
3D515B67
BCF0569F
3D2ACE4A
BD59BAA1
BD9A3684
BD5B56C6
3CF2068D
BC834707
BE143F65
3D3047EC
BDA03DC3
3E0ED201
3DA00698
BD8C9F25
BD127C6C
BD9C1452
3D89717D
3D724AF9
BDC13B1A
3D61D0AA
3BACA565
BC43EED8
BCF882EE
BDCD031C
3DB7FEFE
BDC44F85
3D517487
3D62EC87
37C663FD
3D1E2C63
3BA9218C
3BA11E1D
BD94DC09
3C697B79
BD7D1527
BCC0EF74
3C849662
3D39B3F3
BDC124DA
BDDA7523
3B1C2133
3D96FE0C
BD3F51D8
3D6FA6E7
3E15827E
3E27A9F6
BE105C6D
38CCD42F
3D97761A
3BBC2535
3C8858DA
BDF26C2E
BD867694
3DF326D4
3E1E0215
BE3161F7
BD69CF49
BD0665DB
BDA999D3
3E27244C
BD18C231
BD35DFD1
3E0F72C9
BD272D4B
BC43AD8A
BCF857F0
BD6A66FC
3D1B663B
BC8F3674
BCDB0824
BBE4C1CC
BD67311A
BD51B1FC
BDBE9BD6
BE235642
3DA76854
3C55514B
BDC7CE27
BDC0D3C8
3D499832
BE0F2623
BC80398C
BC84A8D1
3C9CC563
3D58F6B7
BE221401
BDBFA9E9
3D6F0BEA
BD8C27E3
3D8EAE4D
3D36C318
BD63E37F
37A4EB87
3DB8003E
BCBE74BB
3A85E6DF
BD895565
3D9B3F66
3D3A57CD
3D829A68
BDA90B08
BCA6C567
BC2B0B67
3E17764A
BE090382
BD0245F6
3D9FF8D7
3D123CC6
3D201C5A
BE1EAFE0
3C3204C0
3DA6C1AC
BD8388AA
3C9089B0
BD981842
BC098F8B
3CFD9628
3BDC23AD
BE0BE919
BE0846C4
BDD4E68E
3DAE487B
BDEB040A
3C49E297
BD8F4D78
3BE8AC92
3D818357
BE049F2D
BCCA0E87
BE13E922
3DA34334
BDFC662C
BD7816C8
3D0C6190
3C97AE17
3D64D844
BD3E68D4
BC1E07B3
3B2A285D
BDE554D4
BDF53D8A
3D5C8354
BE50FE85
3CEE241B
BDF25330
3E01AD66
BD9D2C38
3D2E0138
3DA538A5
BCC7AD69
BDB8728B
3DF42451
BDFDBEC2
3D7EE607
3D037D45
BD06C963
BD5E1608
BD81EBDC
3DA3549C
3E08E2DB
3DBADE65
3DD298D5
BD5993A8
BD807ED7
3DCD246F
BDE462D3
BD234499
BDD2B6EB
3DBF0152
BDC2D21A
BC20EDEC
BDB7F9C7
BDE83115
3C9202BC
BD5DC3D3
3D8428FC
BBF77126
BCB48090
BDD31B85
3D78F0B2
BDB0D60E
BD10A33B
BC96DDA8
3D8DE6A0
3D801AFE
BDB35A65
BD44EFBC
3DFE01E9
3D9A6E3E
3D1F4A7B
BC679B90
BDA83E92
3D60F9AD
3D7A6D64
3DEEFB23
BB318C55
BDB79107
3DEA33BA
3CD029F4
BDFAEA06
3C926476
3CAD5FC5
BD6CD401
3DCDCB5C
3CBACCD5
BDCFB5DF
3CB6E809
3D26B7E8
BCB06538
BD150F23
BDC91765
3D6DCA30
3E18170E
3B60E78C
3D076892
3DD27940
3D802D83
3D22F45F
3DAA3829
3DA34A02
BD6C15A0
3C904D2A
BDF1570F
3D3553AC
3CBBCB7D
3D1BE3CC
BDB1EA1C
3D89B4CD
BDA8463D
3D94C29D
BD2136C4
3D166EC2
3DD29DB0
BDD4DDFB
BDD799A1
BBCB4BAE
BD9CD7A0
BC033432
BDA8EA57
BC8D229E
3D2C06D4
BD8071F7
3CA20F9F
3D71F457
BB268D48
BE17A7F5
BD6B0CA6
3D7F39D7
3DD51123
3E057412
3CC06A43
BDE57DC5
3E0924F2
3DD9226D
3DB9ACC9
BD0C7D14
BDD84622
BD70B26D
3C9E550A
BDD3AE02
BC4D9143
BDC209C5
BDE97689
BC940B96
BD8B4E17
3D6DB738
3D8D9D92
3DD46C30
BDFCC1DA
3D44089E
3DB6057A
39648174
BC173C92
3CDA6394
3DA1E55C
3C5693B5
BE05336B
BC98A523
3DB98DFD
3D31ECA4
3D8DBD57
3D4E5167
BDE442B9
3DF8C448
3CA98BCA
3CBA2596
3BEB85B5
BD50CC26
3C8CA86F
BC114F7E
BDA7E497
3E098D9C
BC2E013A
BCCD859A
3DB3C22C
3D0EDD2B
3DACE2DB
BDB44C00
3CE2CB9C
3DB29EB3
BD8AC956
3CDBB96F
BD0FB428
BDB3DDDA
BD89F418
3DCA6456
BCFEB38A
3DFE3D17
3DA3CDB0
3E0A8832
3D8513A7
3BE73F7F
BDA17D3A
BD69D29C
3CA80207
BC85729B
BDC68202
3DA17118
3D059109
BE0F43A7
3D5925C1
BDF2B150
3E09272B
BD01064D
BCA9B79F
BDA993C2
3CEF1460
BCB313CE
3DCA9812
3D38B6C3
BE1E7E8B
3D1343CD
BDD73BAA
3D48E63B
BD5536D6
3D392746
BE0977B1
3CACFF72
BD41504A
BE03D49F
3D1948A1
3D2089F6
BDC443F9
BD6A6C88
BDB957B0
3E207C09
BD89EE55
BDC50464
3DD69A3B
3DA6AF43
3D29A250
3B2BAE44
BB05CEE1
BD5AFA5A
3DCD4275
3E1D0B02
3CCB3C8A
3E02F9F3
BE2A58B2
BDACDFA6
BE048EA6
3DAA07ED
3E17A7A8
BD6E3D98
3D6770E0
BE0D36FF
3DDDF82E
3CCB5229
3D2A2208
3D9EC3CD
BBFFB908
3D319F6A
3D2593A6
BD7B6C35
BB831CD5
BCA2B0DA
BAA4426A
BD91F780
3D9F45A7
BD7B9892
3DCF4EB1
3DA6738D
3D93ADD7
BD515BE0
BDE79D49
BDA90C8C
BCF8449A
BDC520A5
3DD5F8EC
BCE4E5AD
3D1C67C2
BD89F637
BDEADC92
3D63EE62
BD3537AD
3D75BD11
BD7AA273
BDDA6C5D
BD26B6DE
3D79CA03
BDCDCD45
BDFBEC89
3C748A16
3D3C5A89
BD9A5BBC
BD9F6AC0
BCAAB00D
BDC4F945
3DECBDE5
3D1BB2FC
BD1D9EDF
BB80336C
3DD650CF
BCCE208F
3CC4F095
BDF69BD1
BE09AEA3
BE0ED333
BE105F6F
BDF72F3F
3CDFF142
BDFFF388
3D9958C2
BDE064D7
3CFB600E
3D85F148
BDA14C00
BDDF72CC
3D317ADC
3DBBA434
BD6F873F
3CB2E9B7
3D317345
3D34FEF5
3E0FE808
BB828617
BD48C6F6
BCC79A1D
BE1530FF
BD7F7FF5
BD5E0894
BD758F2B
3DAEBAF6
3D690FFC
BD160C9C
BD9E6F74
3CC1A465
BD12FE6D
BBEEAD9D
BD7B4DDC
BABBAB3C
BD916F58
BD67CB53
3DB6BEA1
3D5C9478
BDCF3B7E
3DCF3D69
3DA30191
BA3B9FD4
3DB38D24
BD5DEF31
3DBF02EA
BC1BFDD8
3CA0B7FC
BC31D133
3CD79AA6
3E325DAF
3C2B8C4B
3C638DA4
BDEAE9B9
BD303252
3DD79B59
BD0D43C5
3E24BFC2
3CECB44E
BDE1BD08
3DD573E5
3D1551DC
BDE84AD1
BDEC4702
3DB620B3
BD4E7E20
BDB39A7D
BD29D581
3C3C69B3
3D80D4DC
3E0A6BCB
BCC47C87
3E264802
3BA55D1C
BCFB97CC
BD1799A7
3DBFFDCC
BD3E3113
BD9630F2
3DA268C4
BD9A98D5
3D43657D
3DC51868
3DC7F072
3DE21959
BAA40E12
3C19DA7C
3C8129F1
BD5237CB
3D281B85
3D109E15
3D9EA89D
BD47478D
3D2E1F50
BDD35FDB
3DA8A5E8
3D40602D
3DFBEF2A
3C9D982C
3D31CC0B
BDD01BA3
3CC6D9EF
BD194CC8
3CEA24C2
BD025C2E
BC01D868
3CF6B60A
BD69617B
BD660BEE
3E1C717F
3D98EAF8
3DDCA6DB
3D87E158
3CC2F7C2
BD84CC48
BD9C6923
3D497B9F
BAB0308A
3D3E73F4
BD90D602
3DDFFB19
BD9C0797
BD2F4212
BDEE433E
BE175818
3CF1D077
BE1CDC29
BC934064
3D892498
BD44BB10
BD57EAB0
3C944F88
BDFF194B
3D986BCD
3D64C73D
BD9FA140
3D3675F9
3CF003C4
BD82C6DC
BDD99C31
BD972830
BD44134D
BD80256F
3DDF77C4
3B8D236A
BDB747A2
3C9CF3C7
3DB9EDFB
3DB8BF70
3DC70045
BDE89060
BDA25CFD
BD509E08
3DFB627B
BDC98BCC
BDA5FB94
3E0D59AA
3DE88CB9
BD97DC01
BD9CA48E
3DF23D2F
3D7C0FBE
BDBEF39A
3E10D895
BD423D34
3C5B6FE8
3D986DD7
BDAB1E72
BDB3FC8F
3CB9BDF2
3C981E44
3D0E87C0
3C93E67C
3D2AB870
BCD791ED
3DADF193
BC78A050
BD330CA2
3D8FE02E
BDDF1AE3
BE1DE9D8
3C9C9629
BD3A1DCB
3CE157AE
3E10D327
3DAD6B70
BE2A8724
3D18F793
BD0CDC9D
BD2881D2
BDD267B7
BD8C82C1
3D9C85F5
3DDFFF7C
BD25F4E7
BDCBF031
BE1A7CAC
BCF85E76
BE01D47B
BDA26BC4
3C50A041
3DAECE7F
BE063739
BDE3ECE2
BD299949
3DEC16D0
BD6D1E2E
3DC8FE55
BDDE4C73
BD9C2456
BC7BE3A6
BCAAD516
BC24077C
3CBB5409
3CDD2A73
BD5CF4EB
BD568AC4
BD8A7A23
BD8D771D
BC9C82B8
BDFABD58
3BA9493A
BC9E0B7E
BE0712AB
3D3917B4
3C70B7F9
3DB10BF7
3D53C971
3C067C1B
3DC84698
3BFD0C05
3D97ACDA
BD98AA8D
BD745E31
389D23BD
BD650A00
BD7D951F
BCD87171
BD855EE9
BDFC4844
3D97E3AA
BD193F14
BC6B5F1F
BDF42B8A
BD922935
BD7E9956
BDAA7156
3DA5600F
BB31282C
3D440421
BE06E24D
BDE02CE4
3C8BCB85
BDED6446
BDE7AB69
3C65A1DB
3D525194
3CCFE2F2
BCF1D5EB
3DA793AC
BADBFF70
3D7B0DFB
BCC3E964
BC640090
BD6D018B
3DB54776
BDB02EDB
BD93D09F
BDC42D23
BD63944A
BD90ADB8
3E060716
3E028306
3D2FADBB
BDDB6CF9
BDD5FC85
3C86B3F4
3D397054
BE24BFB2
BDA1E941
BE13E99D
BD24D501
3D9ECDAD
BDDDD774
BCEBD0AE
3DA1D430
BE0D7B9D
BC8AA35D
3DF92690
3CACF079
BDD7FC61
BDD577DD
BD1EEC0F
BD9ACCF5
3E0A5729
BD18566E
BDDA136C
3DBD87F9
BDAB9714
3DDBA6A5
3C376C3D
3D34B086
BD88DFEA
BDA48F5D
3D3202B2
BDEC35BE
3DCCBADC
BD9A405E
BD6F4DE9
BD93AAEA
3C30904B
3B03CED7
3DB146AF
3C1BF88F
3D402C25
3C90EC06
3DB4AD91
3D944BCF
3DCABBE7
BD23754B
3DD679DE
BDC510A2
3CFB6E50
3DD87217
BD55092C
BDA5DBF9
3D02352C
3A030FBF
3D946F6B
3DBF4267
BC80F7D7
BD545B01
3DC60730
BD582C4F
B959C75C
BC91B2B0
3C35F8CB
3DBC7816
3DBCD264
BD78EDC8
BD0FC354
3D311394
3D93F3BC
BD17850A
3D8248E1
BDA4625D
BE156945
3DA8D4B5
3DB7843E
BD9B487C
3DC2C86C
BCC47BBB
3C85532B
BDEDA8B1
BD12881D
3D8CD86C
BD4199DB
BD8B541C
BD8CF10E
BCB6106D
3DC1D3CE
BD393607
3D6DA0C2
BDB78708
BD0D437A
3E1A2947
BDC1CA17
BE331364
BDA20F11
3DDE6D7A
BD8259AC
BCD0BE5E
BD3BF594
3DDA8C8E
BB2FBB9A
BD54E69A
3DDB58BC
BD964CA6
3D212D0F
3D22D38D
3D3E074A
3D9D14FF
3D4764D6
3DC0554F
3D5A5EF7
BD4189D0
BDA9EB90
3D879B80
3DAC5C65
BDA031AA
3CE1CD90
BD9057DB
BD1D2240
BD55B308
3D3B0788
3D687B74
3DB77997
BCEF5C3E
3AA500AB
3D37C2EA
3D38897C
BDF70AAA
BD3EF2AF
3CB355C3
BC16164D
BC885437
3D95B12E
BD558F79
BD7DC6B5
BD0ECEF8
BDAB95B1
3D2448F8
BCC00C65
3D8B72C2
BCA7E339
3DBACC30
BD4D041A
BD727FDD
3D60F80D
BCB18020
BBAEDEE6
BDE4E2F3
BD5351FF
3CDBBB37
BDAE84E2
BE055F2F
3DC71BB2
3CD5A407
BBC2BB3B
BC301DD5
3A9EB7BC
3DB76E04
3D045156
3D21A7BB
BCDDDCA5
BC3130D0
3D43B244
3D6B0D04
BDD358A4
3DAE1816
BCD2568A
BB17107D
3E122240
3DC540F3
3CB8182F
BCBB10FD
3D611CA0
BD7C4D28
BC556CCF
BD254FE9
BC01D9EA
3D298A78
BD157E44
BD94D088
BCAE19A9
3BEB6970
BD3CEE8E
BAB2AC0F
3D35B948
3E16FBFC
BDC361AE
3DEC50CE
BB9003D9
BDEFD90A
3CBD4281
BD88FA79
3DA32453
3E08DC5B
BDD8D2A7
BC86AB7B
3DD786DC
3DB6E3C2
3D69FE26
3DB4EAA3
BD3C4F84
BD9AFC88
BD734420
3DADD8EE
3D0F829A
BC2FB8B5
BD4111B6
BAD6888D
3DBD0F38
3C8C6F0F
3D3EF529
BDB699AC
BDBDFAF7
BDA2C370
BC2A02BE
BDB7A2D6
BD9C375D
BCD3A879
3C9D616A
3DFB9A0A
3DAACD2F
3D9F62EA
BC892731
3D05592B
BCB12E2B
BD89C029
3C85682A
3D2E8C2D
3E1426C6
3DB25D77
BDDB4352
BC6C1633
BDA1C493
3DB5604A
3DA7B1CD
BDDBDA67
BDE30A60
3D97EDA0
3DD20F2B
BD4B6B3B
BCB6C970
BD840B09
BC1BC25E
BD2E89F9
BCCA863B
3D367CD2
3D1067CF
3D9D4AEF
BDC134C2
3C9F8DA4
BCBCDA91
3DE48EDA
3DD9EADD
3CD68E17
3DA4CDA0
BB447A99
3CCC3C49
3DE9CE59
BD9AC0B2
BCA81A15
3CB9F514
3CC4789B
3B3F952C
3D90EE5F
3D867C6E
BCF3EF40
BDB2E03D
BCB516B8
BDA278E2
3D9EF8D3
3CBCFBAF
BCF26C9F
BD4FEF4F
BDF85789
3D1F09D3
3CB1AEA4
3CC63417
39ECC4BA
3DA3544A
BDE6961C
BE2D0A7A
3DB24B3F
BDBE3981
3973C5E0
3D8A1DC9
BCFC7973
3D80F5B1
3D8C3D99
3CAAD28C
3DB81FC3
BCCD563F
BDAECDED
3C0639E1
3D9F94E6
BCB0533F
BDC1A210
3DA1FB97
BDFD0F6B
BADAC101
3D965795
BD40AC0A
BD9660C4
3D156B0C
BD920A0D
BDCB5BEB
BDB0A7BB
3C266051
BD5D6259
BD2085F5
BDE0F41A
3D44300E
BD931296
BD4EABFD
BDC75423
BDBF5977
3DA1ADA9
3D7234E1
BDA36418
BC9E9857
3D0BDFF3
BD106769
3E01AAC5
BD72A7EB
3CC583E3
3DB0DD5C
BE0A13D1
3D94CF4E
3D75AF7F
3D71B7A8
BD37E3CF
3DD34E42
3E084893
BB0659A1
BDFA523E
BC9FDCC5
3D91EB1B
BCD53511
3DA6A858
BDA266B1
BDCA534E
3DE48259
3B23A58C
3DF5AF52
3E04ED29
BD9F6C8E
BD92667D
BC1E5EC6
BD064717
3DF96C5F
BDA27568
3BE56E84
3D0D831B
3D975D92
3CC58B85
3DAA2EBA
3C1E1BCA
3CD023BA
BD90BE2E
3D1AA27E
3DA173D6
3DCF38B9
3D7DAF3D
BE028F8C
3D13772E
BB89FA3F
3CBB3215
3D9266A6
3BAD20CA
BD30DC81
BC40C268
3D1D18BA
3DB8B2CA
BE1AB57C
3D3DE345
3DD3E907
BC83E0F0
BCCB68EF
3ADC7AEB
BD89A7CE
BD8018E9
3CFA744A
BD8C45CE
BDE99E31
3D07CDCD
BD52D5B8
BDC853EF
BDD64D9D
3CAEF754
BD4630B9
3DCD6743
BE06B7AD
BC21CEB2
3D6D90DA
BE0BB3A6
BD9917A4
3DDC0054
3E01CCFA
BDB4B2E9
3E00E690
3E0A8A8D
3D0B4A56
3CB00013
BE019AD4
BCCE07A0
3D884181
3D16B7FB
BDD6F9D8
3DF0EB50
3E0FF15E
3B5EFDD2
BDCFD200
3D9099B7
3D1F7291
3D5F7C65
BDE0B040
BDDFCA02
3C07BE70
BD793FBF
3DB1A7F4
3D928B1A
3E0EC582
3CCD910D
3DE5DBE3
3CC65FB6
3DB6BDD2
3DA9BC2B
BDA18365
BD98E030
3C57008D
BCC7EBC7
3D886921
BE09B6CD
BD78EDC5
BE0830D6
3D8EE7F0
3D6B6AF8
BC2C6BD9
BD208B6B
BCD080B6
BCE44B59
BDF54DDF
BDE822F2
3CB83E35
BD2C7DC2
BE13367C
BDDBFC42
BCBF1519
3D8F651F
3D4C2817
BCEAA70D
BCB45029
3CA91035
BE0D9A58
3DB72632
BD084925
BE047E4F
3DBD3662
3D9DA4A5
3DEDFD2C
3DD3FF8C
BE2231D9
3DBC9D80
BE024A89
BE0BEE68
3D28F6D4
3DB6AF2A
3DD1FB89
3C651132
3DC6B0E5
3D3A4206
3D7868C2
BCBFFDB7
BD01F29C
3DA6F411
3E04616A
3D1829C0
BD1F3999
BDDAF333
3DEA14AD
BD8DF764
3D10168E
3D60A10D
BE108342
BC23A3E9
3E16FAAE
BE02AD37
BDA64443
3DA11EBC
3C3E4EE5
BC07BFBD
3DADE0B4
3D9488B7
3D5ACE8D
BDB7AD4E
BD9C2BC1
3CEAB378
BE10C3EA
BD4F74EB
3D0BC5F9
BDA45450
BDB13C5F
BDC955AC
3CA68992
3CB6BA26
BC514BA2
BCC32680
3D7349C1
3E1D36CE
3BBA2291
BBC4A9D3
3D7054FD
3C9DF762
3C53DB7F
BD4B63B9
BE11559A
BDB8F07A
BD3DDCB5
BDEA23A9
BDCCD43D
3CB28C75
3CB58ABC
3BC9AB70
3B8F66A5
BD8BA408
3CE24357
3DBB2BD9
BD6FE23E
BDA49629
BD4778E8
39E1E7BC
3B194E70
3DD5F364
3DC90376
3C9E8FAD
3C8F3507
3D95E6A3
3DBBB483
BD92A1E1
3DBA6248
3CC5F71B
3D0A6DB5
3DD8C325
3DA92AF3
3BD52FB2
3DAEE350
BD5AD39E
3DF05187
BD399502
BDB0E30E
3CDADB13
BE1FDE28
BD2C2BA0
BDA4C29D
BD2DC80F
BDBB94EC
BD66D6C1
BE0E7EAE
3DC118F5
3C99794E
BCAA3F34
3CD6B117
3DA5E62B
BCD33054
3BE079E8
BCC51D0B
3CF2FCA2
3D296422
BC0306B0
BE1A6825
3D6EF4F0
BA8307B2
3D3D1C40
BBDF1752
BD29BBAB
BDA74177
BCD5E371
3DCA8BA1
BE066862
3D5384ED
3D25035D
BD941B96
3C3C5EF6
BAE2785B
3E0FD49D
3D87D85C
3CE73457
BD619C2F
3DEFD155
3CB740E4
3DE93484
3C95D32B
BCDFF5CF
3D403B44
3DC9C079
BB93E53A
3D9E0F33
3DD8E3B9
BDAC5A46
BC61E8E9
3DA5FC98
3DA1F756
3DB004EC
3DA6DC01
BDDA0353
3DD79DF4
BD2295A1
BD8AE7DD
BBF45D8A
BD941D68
BE095491
3B7F647A
3E1E9172
BD33D790
BC928C7A
3D86EFEE
BBF5A12C
3D05281B
3D3807CF
BD972BFC
3E0382AF
3D7FCFF7
BCA996D2
3DA846E9
3D86E4BA
3CAF937C
3E1DD5F2
BDA86048
3BD84033
3D1F820E
BDA917B5
BB814AC3
3B7A249F
3DA2E7CD
BDA6F62E
3D9370C2
BC9F74C5
BCC25616
BCA37D93
3D7110EF
BD52964B
3E19939F
BD1DD6F3
BD3F058C
BDE9F9E8
BD39ED7A
BBF6C935
3DA96D58
BDE7F2A7
3D14C75D
BD76154E
BD7A07AB
BC8638A9
BD16AC8D
BD29121A
BE077C00
3E13F937
3DE6B258
BD0A152D
3C086387
3D4F8214
BD37348F
3C037779
BCF60525
BD5F192D
BD9F8ABD
BDA2C062
3D632699
3CA45357
BDC025E4
3AC7AC7C
BD33D933
BD6C4DA1
BCF65C99
BE1E6FE6
BD1DB796
3D5CEB35
BDE02C88
3E0F604A
3DD53C83
3DDEF846
BD82A746
3D48F994
BE1C83CA
3D922F00
3D81283A
BD6BF9A3
BD37AF11
BE2B8693
BBDBA07A
BE084C36
3D47FEB4
3DE10D08
3DE8F8C8
BCA70095
BD81FB83
3D07CD5C
3D188845
3C168CAA
3E02AD6C
BD856D65
BE01BC41
BD15B030
3D9A0C17
3BBD57FA
3B383A19
BD6EE84E
BDC9AC90
BD29565B
3BFFC181
3CF0D45E
3DBC8E57
BD0A7211
BD3FC746
BB23092F
BDD72A54
3D3DF059
BDDA29E2
3DD0C564
BDD9908E
3D4EA84A
BDE33D56
3DE80449
3D529940
3C59A02F
BD134BA2
BDC9B58B
3D08019F
3C971901
BB46AACA
3DB4E349
3C47E857
3DF02E60
BD2D7884
BC8F2207
BD2948CC
BDBB0AE1
BD1726E6
3CFD9C63
3C6DC911
BD3FDA91
3E1ED388
BCBDADF6
3E04FE62
BDAA402F
BC2E7345
3DF6CF64
3DB116AB
3D999666
BDAF856C
BDC457C7
3CAC0A0A
3B9FB5E8
BDEEAFE6
BDDB673F
BDEDEE02
BDE3D2F9
3D2B115E
BCA075F7
3DE1EA4F
3D3F2BB5
3CB27995
BDABCA2A
3D65CAA0
BD8938AA
3C6D0943
BD7F762A
BD60C21A
3DEF4EED
3DB31A38
3DAF9BB4
BD994F53
3D8B06DB
3D5BE5E5
BDC03CF1
3D5BC9E5
3DAE7F46
BDA3397F
BDB989A1
BC01E924
BDC14136
3D219856
BCDED690
3D5B27E4
BCAFEEF1
BDDD97A8
BDF9775F
3D877848
BD7EC8B8
BD682538
3D0BB31F
3D659482
BDADFC35
3DBDC926
BDE50465
3C54CEC4
BD039104
3CC3D750
BD6A332D
3D9A764F
3E0E18BC
BD447C59
3E0B5997
3DCA64D8
3DE4D4C8
BD3489D0
BDA49A5D
3DB88407
3DED9882
3D7DABED
3CA0CBD8
3DBFF134
3CCC856A
BDB947B5
BDA84E05
3E1BE1DE
3CF8118A
BD66CAAA
3DB4E95D
3D2F8F8A
3E03E410
3DEB7DAB
3C729DC2
BD7BA9F2
BCB58AD1
3D96BC38
3D9DBB10
BD848616
BAF93ABF
BD0E7D0B
3D04FDE4
3DB3B5E4
3DC73285
BDF805EA
BDCFDE66
BCC0FA87
BD845592
3D86052C
3C595282
BD93CDDD
BC789CD5
3E0F9DAD
BCA0219E
BD0E2314
BCEFA67C
BD81C349
BDC207F8
BE11A38E
3CAEDE1F
3D5FF43C
BDA61051
BD66E956
3D315238
BD834CB4
BD7FB463
BCD2AFC5
BCBD7891
3DC1BD67
BC9853D4
BD9E125E
BD519B73
BDE21A67
3D88DCB0
BD1DEDC2
3CDB2AE9
3D717F0E
3D058530
3D9F69BF
3CAF00D4
3D35AC47
BC69E988
BE174C61
3CD889EF
3E213DA1
3C0BE4F0
3DCB0787
3D82AC2A
BD9C611F
BE2293BF
3C90ABD5
3D5EC436
3D9B9696
BDA71DE7
BDB8DFDF
B95778CD
BCA55BF0
3DA2E2E8
3D8EDCBE
BD811641
3D91D6BF
3D039AED
BD8C6583
3DE5E7BB
3D2817BC
3B6980E3
BC995D14
3D769771
3DA752F8
BDA868DC
3CBDEDB7
BE0C2896
BDA16C42
3DA1C574
BD5D8026
BD28DD03
BD4E9A07
BE1B8C69
BDFDC6B4
BDCA5797
3D95D4FA
3DB4992C
3CEF1D7A
BD054F17
BD52C097
BD2B5F27
BCD39594
3CF4BE18
3E0FF944
BD954C73
3DE0346C
BBDBDE4D
BBD396D6
BE04A344
BDFF7EB1
BCC99413
3E2DFB01
BDD10227
BCA86FEB
BD089A3E
BDEB5112
3DA5D035
BC091CCA
BDFD9E54
BDB623F1
BDBFA98B
3D4A1A4D
3D2C5FAD
3DE7E7F2
BBADD652
BDB9B493
BD0E6C2F
3DD92B5C
BCF56FAE
BDB2762A
3BD7BC3F
BC676BCA
BC958FCA
3D4901B9
BD359789
BD4719FD
BDE11DBD
BA698697
BDA4A682
3E0F8251
3C5353BA
BD5A9034
BD0E9405
BDBE39BE
BDF80B5E
3DBC90F3
BD8F5F19
3C7C6576
BD8AE558
3D6AAB34
BDE51B3A
3D9003CE
3B9FADDB
3B4FE028
BD87B037
3D8B57AB
3DFBB6D7
BE094A7F
3E00C811
3D9BBCDE
BDB731A3
BD9C52FD
BC40ACEE
BD485CA0
3D575D72
3CF496DB
BD4C1410
BDAE4AE9
BD29EFDE
3E105AE7
BD1E0F72
3A39CD6C
3DAA09CA
BD1400BB
3D12CECD
3E0F6189
3D92AFBC
BD0ACAB4
3DAE7C5A
3E188810
3AA78D4D
3E15168D
BD215439
3D9F3C07
3E12D64D
BDBE7B4A
BD9D1C35
3D904DA4
BCEA9494
BDC85530
3DA29D38
3BF3A9DB
BCAEA408
3DE70955
BCA56834
BDADA959
BE1636B6
3D7F2FC6
BE270D14
3C0FB7EE
3DFE9BD9
BC634BEA
BD927F3A
BDBC885D
BBA54D57
BAA41B7E
BB7C130B
BE21574D
3D8AA7C7
BE116162
BDBABC4D
3CE82C64
BC035057
BD7CDAFF
3C399D5B
BCB79EC3
3AF51A1E
BCF21F4C
BE20A417
3D96C3A8
BDEDB1DA
BB615067
BD056C94
3D74EFD1
3CAC268F
3CBA8272
BD3D1B9C
3DDFF470
BDEDB658
3BFCC3B5
3E104963
BDC5E2F1
3E00D622
BDBCFB62
3DBB6D9F
BD934E26
3CFC97C6
3D6900E3
3DE3684A
BDA6485A
3C80D68F
3DA4D55D
3CAA27CC
BD629FAA
BDAC0D59
3C2D430F
BD5581CF
3DF6B801
BDAE240D
3E02CD4E
BD111B51
BDBD4346
3D9A2770
BCDA274E
BC5BDF7A
BE00BF03
BDA53047
BDADB94E
BDAE2C7F
BD2C5E52
3D00DE4F
3D591672
3D0E4489
3CC96427
3DF13E99
3E07D64E
BDAE3AC9
BCBE26A7
3CE0C705
BD562330
BC889A73
BD348177
BA1A1CA1
3CE35D62
3D017365
3DE31D06
3DAF27A4
BD59B0F9
BD3C0C6E
3DD922E9
BDDBF792
BDD0F792
BD94FDBF
3B4A3D25
BCD03507
3BF25979
3DF5F1E3
BCCA775D
BDDEDD19
3DA3A80E
3D0335E8
3D7F7E1A
3CC2D2A3
BD999C81
3D7A9BA8
3C9606DD
3E12D95E
BD93F2DF
3C882C6F
3D08BDDC
3BDC9166
BD9ADE6E
BC051B32
BD986BA4
BC53BF25
3D86FE25
BDB4ACB4
3CCB9316
BDBDF985
BD91F8C9
BD92A8A0
BDB335A5
BD6B258B
BE20ADA6
BDF257B2
3DB2992D
3D402BED
BDEF7EDE
BD2BCB96
3DF116FC
BDA833B7
BE139B9D
3DBFB9B9
3D959D5F
BD5C9A6A
3E132B4C
3D137898
3D6BDD61
3D007DCA
BD0EC2D9
BD9EA9C7
3B5BC6BB
3B9B9A50
3D8E30DD
3D3479A5
BDA2FDF5
3DE26D67
3BBF6256
BD8ACF8C
BDC4787B
BDB68879
BD90674A
3C87918A
3D5E99F4
3D3EFB5E
BDA61884
3D829DB6
BDA29A68
3D720D8F
BCC88B29
BDCC5A4D
BCB489EB
3D96440E
3D127BB0
3D76DD4F
3DD4524D
BD935DFE
BD7492FA
3DB7B623
3D77F63E
3E097B7B
391370B6
3DA79B31
BD6FFA3C
3E12B2BD
3D01BFDE
3BABE170
3DA06371
3D8C43A1
BD2DD3F9
3DE88D15
3C3DC279
BC22D969
3C3A3459
3DCBB50A
3DA7C37B
BDC4EB8F
3E0B096E
3DF56F9F
3DF687BD
3E037B30
BE2065E2
3D0A072D
BD73D65C
BD5BD695
3DECC434
BDD86421
BBA39180
3CC638CF
BDF749EC
3DB91A7F
BC5D7B9C
BD8546DD
BD0E0016
3E0689AB
3CDDB8E8
3CE14B1F
BDC9B385
BE0CC29C
BD88FC08
3D9ED9A6
3D857D50
3D089E3C
BB94F3AD
BD96CEE5
BC944816
3CE0B5A8
3DA73F28
BD5F1C83
3DC22DBB
3D363CEE
3DB5601D
BDCDDA76
BDEB3269
BDB44803
BE14C6D9
BB6CBCD7
BC9C06C1
3DA7A212
BC256F46
3D596AB5
BD9EE571
BD017E4D
3DF6C5DF
3D9C65F9
B9EC6417
3C6DC392
3E03380D
3DF4C5FB
3D435A98
BD9C3D5E
3DCECF4F
BC988106
3DE0DB9C
BDCEC216
3CF6C132
BD1FD954
3C87804D
BDE99135
3CF17FBF
BD0E4883
3CF528FC
3D94F89D
BDB65473
3D4F2CC1
BC630F03
BDDC5456
3DA42C33
BE07D05B
3DBD66A2
BD7B9405
BE132CC8
3DAC3D06
BC24F1B2
3CC27CB7
3C73CDAD
BCA9D2B2
BE014BFA
BDC1CDC7
BD6CB2A9
BE1EE4E2
BBC4E19C
3D511C15
BE169AA1
3B41F1D2
BDEC690E
BCDD8745
3DC3950E
3C2DAC81
BD3571B7
BD96245A
3CABE23C
3D127A30
BD38D417
3CA8B022
BDB286A9
3BF5BEF4
3C3B6958
BD8856E3
BD995EBD
BD4BD3B6
BD8DCF71
3DFE204C
3DE18219
BD33F543
3D405F8C
BDA26AF9
BDFEF59F
3E1CA697
3CAF060D
BD8C500A
BBAC1181
3E04A525
3D97568E
3D8803BC
BDE33545
3D668347
3D964202
BB3875D3
BDDE4947
BD8597FC
BCB5D27A
3D556B31
3D0B3F03
BD75ED1C
BC281B3D
BC5ECC5E
3DA1F6E7
BD811E31
3D28134A
BC3F2A58
3D9075E2
BE0BC3AA
3E077282
BDBAE87C
3DB7E1B5
3E0DCCE9
BC5ABAC1
3D6F62E7
BE0FC0BC
BCE3F4F7
BDCEFDEB
BCF208B6
BD04B943
BD72A5CA
BD4BE6BE
BCE91106
BD6F890D
3BA8954A
3C7268DE
BDC498D6
3C45F50D
3DFF7E47
3D701531
3D960375
3DE3B3EE
BCDB2E8F
3D22BC7E
BDBDAF2B
3E0ECCC9
BD8C2C71
3DE414A1
3C3F38F0
3CBDDF49
BD45AAD5
3D6AB063
3BE12A27
BDA5B704
3DDD509B
BDAABC32
3DEBA412
3DC0BEE9
BD29EF8D
3D47B8E7
3CA83C75
3C98F42D
3E0BB589
BB2A1919
3DA88BD7
BD7A8237
BDAE85DB
3D97BBDA
3D417CAA
BC5BB5F4
BE080E1B
BD7D9B29
3CD760D5
BD7B986A
BCF971B1
3D9AE6EF
3CD548A2
BE082BBB
3DBE9B22
3E1C63BB
BE13FD7D
3C912F5D
3DEC4612
BD94ADF7
BD02D49C
3D842198
BD93D792
3CC5DF93
BCDB0C25
3C89CE0A
3C7303C3
BCAD1A9B
BDEEE2B0
3CC385A1
BE1D8A09
3D0A77CB
3E23E453
3DB95E9F
3D4DE192
3B3F03B6
BDD03097
3E15AD81
BD6EEE52
3DB3AF95
3D31E5C9
3B2D65D4
BD81ABDC
BC0FE734
BCAFEAEF
3D6F36F2
3D768A15
BCD1F469
3D8003F4
3B11FFC7
BD8BD064
3D010407
BCE14EEA
3D7DBC69
BD8F408E
3DD739F1
BDBBDFF9
BCAB21F7
3C95243A
3D2C396C
3C7F2F60
BD84FABC
BE1BDCE4
3CF7E7A3
3D01DA0A
BD6622FA
3C1E3677
3E05A63E
3E160489
BE098F86
3DC863FF
3B1D5D1E
3CE6337B
3CA119CB
BD90423E
3C8F8E73
BDC3496E
3CE3AD13
BC5C677F
BDAA76AF
BAC6167A
3E14E28C
3DCDBCF1
3DD4AFCB
3DA3C0E2
3DE0EE80
3DFEC714
3DE694CD
3DFB01E8
BD9D2CB1
BB65E5A3
BCCA30EC
BC4AB149
3E1F5565
3E133698
BDB483D8
BC90E6A8
BD2CDB4D
BE1292C7
BE0D56B1
BDAD36C4
3CF807AE
BDBACAF9
3D942ACC
BB90389D
BDA94B70
3BB12B87
3DC1FBE7
BDFD28CC
BDB025B0
BD34245D
BDEF8E97
BC85BD49
3C035D62
3D521EE1
BDD60ACF
3DC38723
BE170025
BD9865A6
3DB08125
BCC00640
3DD76728
BE11A7F0
BDB2580F
3DB592F0
B976D5B5
BDE71339
3DA4D507
3DB24258
BC77E351
BDC33881
BDD39BF9
3E1D59B1
3C803788
BB4189CE
3DEA4B2D
3E0E660B
BD9E8CBE
3DBEB8CD
BDCB8C00
BC2BC18F
BD995BDD
3D7B1A40
BDF34617
3D306370
3D206CAA
BDA2CBFE
BD4C4FF2
BDA09A58
3DCBE4C7
3DA0FB86
3DFA75FC
BCB9D0A1
3B54A4DD
3D46C554
BCA95A9D
3CFC1BFB
3CDF8ADA
BCED47E2
BC07E55C
3DDE75DF
BD8ED864
3C980951
3C3AE772
BD88A8A9
BD867555
3C94DD3D
BD4C0D4A
3D436F61
BDEE4235
3D1812AB
BCC81771
BD4B465D
BD804B19
3C0AE079
BD809F39
BDDBCC1A
BD28E5B2
BD14291A
3D8E3338
BDC19D0B
3C810294
3D560BF0
BC2F2D2A
3CB0EC67
BAF0ADA8
BDEBFCD2
BDEFA026
BE0DE01D
3C2E0FA8
3D19163C
3D3482DF
3C943E1B
3C38DDB7
BDFAB1FF
3DAD697E
BCB1FC37
3D9DD146
3C64FE5C
3CF810A8
3D554B81
BD7A6417
BD8933A0
3C02979F
BD8C9134
BD091101
3E072B77
3D235280
BD6582B6
3BA76F86
3DBB58AD
3DF94696
3D9A0978
BCC11D0B
3D974584
BD60A938
BE1440F1
3D8F000A
BD596039
BE1893B7
BE20375A
3D8A23DF
3DFEA301
BDFA358D
BD933085
BDCA5126
BD95E4FF
3D24DC58
3DA2711E
3D9738C7
3C85493B
3D87856B
3BD2FE80
3D995308
3D33E81C
BC99124B
BCE0B619
3D6ADEAB
3DF50B35
3DA581C6
3D46FD1A
BE10E7A2
BC2895EC
BE1E2FD4
3D8E325D
3D5669F7
BC099E19
3D3FC21D
3D41F8E4
3DDA7913
BCF7549B
3BE0768D
3D07813E
3E1E6E3A
BD080283
BDEE86CE
BC141E45
BDB21EBA
3D62DFC6
3DBD1DA7
BE01E38A
BD94F3A0
3DC94B56
BE0FB6C6
BD3F84E3
BE10339E
BD7F6500
3C7CCDF1
3BA83020
BE026DCC
BDC33BE2
BD217848
3D25F956
BC716FEF
BC91063D
BC4622AF
BD088F86
3D84B519
BE0FA690
BD276290
3C5469EF
3D1157FF
BCCC0953
BD8BB908
3DAC62CD
3C26A84B
BDAD57E7
3D743CFE
BD4F1412
3BCB7E43
BDA19A9B
BDBEF034
3D9CE279
BC0D5701
BDB10B58
3DE97C15
BE10A69E
BD70D9BA
BDB8B59D
3DC00F53
BA048B95
BD34C163
3D87B6D1
3DB4C3A5
3D9DBB40
3D0D1F9E
BD14D97E
3D7B0595
BE05A0F3
3D2D441B
3DF341F9
BD9ED108
BE028D1B
BB7B673F
3DD746DE
3DC00772
BE065460
BD538294
BD937A5F
BD14B60D
3D134C30
BC213D5D
BE03C0DC
BD416032
BD3C21C7
BDD9386F
3DB00D23
BD22FEC0
3D5E8861
BB0DA61B
BDB934A3
BCA80F79
3DA5ABAF
BC838A08
3E0F3EBB
3DB88B3F
3D5D870A
BD5B232C
3E0EF0D3
BC297A8D
BE18DE2E
BE01CA4F
3E145E14
BE18A598
BCB55410
3DCBF5E5
3CD58614
3C1D138C
3CD5472A
3C2BFA7A
3DA84CBD
3D0D6C0F
BD7D862E
BD895B01
3CF8DDB7
BE23B0DB
BE066E59
BDEEA2D2
BDB28378
BDE518D8
BD8AAE47
3D8BF955
BC087D32
3C802F5B
BD1333BC
BCC3D75B
3C75FD1D
BE02F395
BBF630C9
3D50E54B
3CA23E64
BD8A65EC
3DC3747B
BDEDB8C1
3D966504
3D7763EA
3DFE9267
3D54C2B8
3CFD02D0
BDA30ACA
3DD97B12
BC3201BB
BDC7B052
BDFF8917
BD769878
BBEEFB0A
BCDC42E7
3DD3ADDB
3B438AAF
BD89F657
BD91B812
BCA6F822
390C64D3
3B490770
3B80F8A3
3E1522E3
3D8A4B84
3CABAFC1
BCCE75DF
3C75185B
BDC62A3D
3DBFEEEB
3D37B1FE
3CA3F522
BE222C0B
BE0325BC
3D872136
3D05B257
BE0410AE
3BB4D78E
3D616E17
3D812A76
3CFC92B3
BD804BA6
BE1C3DD9
3DABD5E3
3D2086A0
3CBAD305
3CADC9B2
3D07E0DD
BCFF87DB
BE184FD8
3DE977DB
3DD06ADA
BD8096D8
3D081F4E
3D23D10D
BE07E0E5
3E1BB0E5
3DC199F8
3E171024
BD9CD9DE
BE0053EB
BCD54BD2
3DA8AF4E
3D6A903C
3C2CE67D
3D6F89A0
3D8439A7
BDC0E9E0
3D5FB126
BD8DC157
BBE33874
3D6AFF02
3D26742E
3CDB8D34
BDC27FB8
BD92A8A1
BD2E54B7
3E09C68E
3D65358F
3E134F2D
3CD853C4
3E11D495
3DA37B29
3DCF0E7D
3D473549
BB948A10
BD832E58
3CFBD02B
3E033594
3CF3AF9A
BD4CC82D
BD311A41
3B1838F1
BD942EAA
BD6DE213
BE11344F
BDACC279
BD5D79E3
BDCFBB53
3D97414C
3D06B859
BE22CCC3
BBB4287C
BD2E02FB
3C7B298C
BC71CDA3
3D94FA92
3D765D5F
BCA72CF5
BD6CFA92
3B769370
3DB3B553
3B8558F0
BDFE89A9
3D226B6A
BE0B7C42
3CB7BF24
BDC563BA
BCD1E4AA
3D9C320C
3D3CFB3B
BD0EEB55
3DD53BFF
3D98FA78
3D40DF1B
BD9C21A5
3DECB2E2
BD8372F0
BCE35280
BD8D6B20
3C63C9B4
BD1D3502
BD994C23
BCDFD34A
3DBD519D
BC83EA00
BC78B47C
3CFAC5A4
BD5B82A0
BD9E5B25
3DF48E13
3D4AB3AB
3D08FABE
3C5784C1
BD1F72EF
3DCD0C59
BC931628
3D3F8C0A
3DD32D3E
BD723DBD
BD1604EF
BD6A58C4
BD504311
3D79B429
BD2BEAED
3DD2406A
3D24DC15
3BC6A0E4
BE008091
BD16EEFD
3D997FA7
3D85933C
BE0B01D6
BD876B07
BC1B10DD
3D543A2F
3CFF907F
3DED57CB
3C62D99F
3DA41BA9
3CE5C353
3DE864B9
BDBAD15A
3BF05984
3DE91DD8
BD81CC88
3D85FCAD
3DA0106C
BE05735F
BDC5DD43
3D51E0B3
BDB5A392
BD6F8F3F
BDA44795
BDD68352
3DB59C0D
3E056465
3D997632
3DA31B67
3DDB1073
3BD229C3
BD3894F7
BC9F864D
3D543A47
BDEFDC03
BDAC26A9
3DE3C39F
3C8AEB56
3D6F68F4
3D3272B7
BE101499
BC87C5DD
3DF5168B
3B3175AE
3C0BA007
3D8866E2
3DB9D4AC
BD9FEF8E
3C59EA01
BDBC319A
BD0420F4
BDC45552
3E0947C5
BD9B5B48
BD8CE95E
3DDD1B50
3DC5717D
3D89B1E4
3DF53FB1
3D62FECB
3D871FCE
3CF38883
BD119305
3CB5E580
3DB85AAD
3E0415D7
BDF514BF
BDB61DA6
3D2FEF67
3DD057C4
BC766C23
3DABC2B7
BD7252EE
BD5A8E06
3DBF93B9
BD5AAC9C
3B11ADBD
BDCC9771
BD8735FF
BCBFA2D8
BB917635
3D85E780
3B2184F5
3D35605F
3DC52BF5
3C9269CA
3DEC3396
3D775544
BD7CB047
3BF84043
3C2006E6
3DDF741D
3D8EDCD8
BD92EA82
3D25FD68
BD3DAC8E
BDA8BF5D
3D9A0265
3D4A71CC
BD7DA1A4
BD981691
3CB2BA92
BDE4BF52
3DFBA3FB
BDD4756B
BD74B40F
3B8F9F1A
3B67FAFC
BD9C9FB7
3C8BF23C
3DAF9B66
3DCBC6E4
BD68670F
3CE89327
BD8FFA26
3D9AA65A
BDB433A9
BCC90B06
3CFB03F2
3BF36614
3D2F1722
3E08B889
3D8377BD
BA967420
BDF4CE13
3D162CA8
3A7978D2
3E143F39
3D06F04C
BC6E20F0
3E067C94
3DB1BEF1
3DFBFC34
3DA4C304
3DB83FBD
BD8B44ED
BC17A21E
3BB21277
3D457113
BBC63599
3D5EA039
BDF8E0E1
3D13ED85
3D69E9CC
BC29B4A5
3DBEC8FB
BC69AB2A
3D95BF4A
3DD993A4
BC090D90
3D96C7AC
BCE4C201
3CCE3C2E
3D5D719D
3DC10386
3E02E8A1
3D06C44A
3DD22050
3E1B09FB
BD0BBF06
BDA630B7
BD835481
BC77B03B
BDDDBDF1
3D978909
BB98CD97
BDAAD264
3DAE6F5E
BDBCDCEB
B90BC114
BD1DD9F5
BD9827A8
3CF8DED4
BB938090
BE089991
BDB0B725
BC6D587E
BDB62E48
BE0EA7DA
3E0C3241
BD744E49
3CC8D094
BCC5266B
BE1A5333
BE0FCACE
3D3C8FA3
BDADEC6B
3DB74007
3DAC0D0D
BDE4C85B
3D7F113D
3DBE4E53
3D378D0F
BE01CBB3
BD5A9512
BDB0DCA8
3D582573
3DAC6E05
3C1F4677
3DA7F2AA
BDE5A329
3D0EA448
BE0E1532
3C2BF404
3D7527E0
BD6DA425
3DAA602D
BD0852A5
3D70F37B
3D8BBD58
3C5C9354
3DFAD5D8
3DE4A4E5
3D57ADDC
BD27EDE8
BB8DABE5
3DD194AB
BE4B1E51
BDCE953C
BE060233
BD61C3C2
BDC0013D
3D1BCCAA
3E030532
BD5DA5A8
BA8318CF
BCE792E1
3DCF8B7D
3CB3C79E
BC8C1619
BC88BDBF
BD9445BD
BD8F6CAD
BD9E3296
3E0C6600
3DD8346A
BD66A03B
3DE29274
3D93A754
3BBAE874
BCA9679D
3D40AF2D
BCBB89E4
3DFC7D0C
3E059049
3D795772
BDA2A38E
3DD3807E
BD1C8C63
BD8FED0F
BDCB6DE8
3D559A26
BD18F18B
3DC545C9
BCD626AE
3BFA3692
BDC9242D
3DD362DE
3D9C4CC9
BD4AE165
3DEBCF4D
3D8A3D50
3E33FA10
BC138025
3D80D373
3D86ECE8
BCAD8A52
BD5D0E59
3C73C2F0
3DA06771
BDEB5F4C
BDA66F4B
BD9A5273
3E09AFDC
3CF3D9A1
BD776F68
3DD6165A
3D80B53E
3D3F0709
3DAF1BF1
BD9BF559
3D2DCFB2
BCEAACE7
BC173322
3DE098DD
3D4356D7
3DDA5F19
3DBBBAFE
BCDBA913
BE024DD9
BCD16C8F
BDAB2682
3DD3683D
BD88C665
BD41C514
BB4F3EC2
BD5621A8
3D8C314D
3DCC8BA2
BDC59AA0
3DA24718
BD41A102
BD1DEBD4
3C6FBFF7
BD0316B8
BE00B8A1
BD114D35
BDCAAB3E
BD45AF8F
3C4C5955
BCE0232B
BC6B6EF9
3A0395F7
3C1BA989
3DAD1746
3DBB3F15
BD94501E
BA02095A
BBD2F69D
BE2B2CC5
3D08244F
BD764379
BE095A70
3C0C154D
3E0AA563
3C648855
BD152A77
3DF46DAA
BB8856A6
3D7EAF48
3D924F91
BC710A7A
3D961410
3CCF87A2
BC6623B6
BD010E9E
3DDE8DBE
3D1D4283
BDDBB970
BDEDBA83
BC678103
BD534A32
3D1920EB
3C31D0F3
3E1A2186
3C29B5DC
BE10F8DE
3D02B25D
BD32D11E
BD675221
BE0EC241
BD677B47
3D3B3D05
BDFED34B
BC5FBA3A
3DD46537
BD84B296
3DBC6C16
BB45481E
3D0479F0
3DE7F68B
BDE65822
BD0A188D
3DA8973C
3D8FDF5D
BD94C4DD
BDCDE475
BE236284
3D85D82A
3D240BF3
BDBD1173
BDE2BD62
BB893761
BD9ADB6B
3DE8199E
BDB6643F
BD842B13
3DCC6D15
BDE7F553
3DA72991
BD3C572C
3C8663A2
BDEF90C0
3D0124EE
BDF55639
BDB6F838
3D97CC7A
3DC43478
BE104B70
3DA6A7CE
BD4A628A
BDD3848F
BD242C1F
BCA7F974
BCC5F69F
BD0C235F
3D4B919C
3DA8A29D
3DA18054
3DDB8C23
BE0830DA
3CA3541D
BCF0F2FD
BDD54C39
3CD63A7F
BD724684
BDFFB84C
BDAF0DC1
BE037BCC
BDAEDC3F
3D949408
BC940F2C
3DDEFDF6
3D3FC649
BDEAD956
3DF23D9E
BCA3B3C9
3CC823A5
3BFD5ACA
3D8F7BD9
3DC6EA99
3CCD5E0C
BDF56293
3D262F82
BDB2B10D
3D10C489
3D920468
3E147F02
3CF0EDFF
BDA21640
3D5C36FB
3D58C8D7
BDC99D6B
BE11E4BD
3D6D7104
BE0027DE
BC9CBA50
BD494E65
3D0E3781
3D40B9AC
BDDD72CE
3D707BEE
3DC120C0
3D5ADF3F
BCB58F84
BBF8BDC1
BAA00BFA
BD9A7434
BD5116E4
3DF4517D
3D386699
BACD2664
3DA04F0C
3D59E592
BD4B9FA9
BC965B1B
3DE47DA5
3D85527A
3DF6738F
3CDBC8FF
BDA1F702
3D28D658
BD2FAEB7
BD858937
3DEE1F81
3D118068
3D902E1C
3D91C1E2
3D3AB98F
3DEA8A91
B93B0E33
3DA971D3
3CE84FE5
3C7CA6C5
3DC1E973
BC7BAE01
BC45E8C2
3E0B03C6
BD0F3EF5
3D984A90
BD98B096
3DE6913F
3D360B0F
BD90B63D
BDF57F5B
3DB7DBDC
BD03C5DB
3B8940B1
BCC2A10A
BD8E095B
3C8F520D
3B99BA51
3D8EF005
BDA41751
BCEABBD6
3B90DB85
BDA31A82
BD8B56F6
3E09D36B
BD455F98
BA0B362A
BCBDA4BC
BDDE3F9C
BE1E6190
3E07D3BD
BD94CF42
3D5E00D2
BDD41FD5
BCC4F2B3
BD2DAB92
BDD5ABC8
3C5A36E3
3D225FE7
BD7A1242
BB96AD81
3E1EB157
3D8A17E3
3DE11BF4
3CF10F4C
3D96CCD5
3D1B697D
3DD9DD41
3DC5C033
3D5A848B
BC4E8ECF
BDF83DE4
BBB18925
BDB7AE99
3CC9C363
3CE14743
3CE0E497
BDF106A7
3D2A561D
3E08E0F6
BDF4F251
3E08E8DC
BCC970A7
BDBBA5A6
3908FF18
BDC8E655
BDC418E7
3DE18571
BD1A95BE
3C949B88
3DB4E63C
3CEC04F6
3DB4812B
3C805DC3
3DE9B02E
BDDE84C7
3D62107E
3D786092
BE041A87
3DCB9B51
BC73257C
BDE57B7B
3DD10D90
BCDA8582
3D35AE93
BC37E371
BD1D556E
3C975A44
3DAE6D9F
BCF16AD1
BC2BEB96
3B3297C2
BD90F44D
BC6AB47F
3C762FBD
BDAD0E3B
BE003944
3DC3CC29
BE014FDA
3DB7CF4A
BDAA031C
BE11BEA0
BDCBE9A2
BCAE3416
3D8B4A56
3DF5F7ED
BCF2C86F
BDE92BF1
BDD40D61
3DBB8455
BD02DA58
BDC7DF71
BD9A0C48
BD922115
3DC760CE
BCFE77AA
BDA5CD91
3DCEF383
BD87B2D9
BD820E9C
BD8B58A0
BDC78686
BC9246CF
BC3F289F
BE0F1D52
BDD8B949
3D5D2067
BDE80F4B
BD927905
BDB03ECB
BC83C694
3DF9C08E
BDD8BEE5
3DC8C0C5
3DDC9D86
BC8BCFA7
BD576189
3D854442
3D29D48D
BDB3AFBB
3D257BF6
3D9F78A8
B9DBFF1A
BDCC8C2A
3A9EB1B1
3C6CB307
3D36B46A
BD78C988
3C9B1280
3DEF3ABE
BAB5944C
3DDCCDF5
BDAEF7E7
3D3646BE
BD4B75CA
BDBC03FF
BC7CE1DE
3B1202F7
3D9E8F51
3DA4CC38
3DF1B914
BD3845A7
3D725F56
3DA4FEB6
BDC1EF16
BDEC0418
3D9D589E
3DA81036
3C44F3B0
BDD22982
3C82C84C
BD316EAD
3BB6D2FB
3DF2E515
BDEBA45F
3DE9B071
BD3572EE
3DDA4CD8
BDEF58DE
BDBFA3F3
BD8283AB
3D8F1688
BD7939EB
3CC2FFD5
3D1DA400
3BB5F875
3D54F883
BD7D409D
3A6D9E29
BDC9BEA5
BD8D2132
3D8D2F04
3C00480F
BD7863B7
BDD50D27
BCBBDCF0
BCA617C7
BE198999
3DA16E30
3D5017D8
BABC9B26
3DD58E2E
3D4681AF
BDF22700
BDDE218E
3D4927E2
BDEE5F3C
BDE64141
3D877196
BDBAB6FC
BDAFBE82
3CC8BACF
BDC0FF4F
BCB64C68
BDEAA72E
3C9DCD91
3C4B7737
3DA85CBF
BC934003
3CEAF47B
BDA84B6D
3DCE252C
BD38B573
BCCD2126
BDAB97AF
3D646D4A
BD06262F
BD7AABF6
BCCC0044
3D2AF10D
BCB0BB94
BBF90E8A
3DB0FD61
3D39A92C
3B6EF292
3D9ADC4B
3CB76E7C
BDE6C33A
3DBE9E6A
BDEF191C
3D69EAD5
BD40923C
3CBE6B0A
3D955497
BDB27178
BDF11BB9
BE098DD2
3D174D7C
BC32F8BB
3AEAFE66
BDEE240A
BC757B0C
3BAF3892
BDB20FB9
BDEFD423
3D55F1CA
3D40526E
3DB168C5
3D622ED9
3D1B2EC2
3DB607B0
BE081C24
BD03DF8E
BBF520E9
BDC3FE4F
BDB6437B
3D7D6A74
3D4AF5F8
3D623A4F
3C224E69
3CF437BB
BD5F57C7
BE0B7BDE
BDC7B1F8
BDB8889E
BD371B78
BDCDFB98
3DB7AB28
3D82B7B6
BCFC08E5
3CF76329
BD9D3E04
BCA2EE0C
BE0C4A29
BC574EBC
BE063676
BDD204D2
3CA3092F
3DAFF952
3DDA2389
BDBBAA1D
BBD804FA
BD7EC5E1
3D4F87B8
3BF556DA
3DFEE45B
3D05467B
BDADAA61
3E0E9CB0
3E0AF5C5
BBD6AC8A
3D128A41
BC4B0BED
3D87B497
3DA2D745
3DECB8B6
3C2A5B53
3D3432D8
3C74B6CC
BD9B7444
3E06338D
BDE05E5D
BD90AB6C
3E17E772
BD4113E7
BD362549
B980D553
BE0DEF8B
BB595571
BCF78F2E
3DA258D0
BD9715B3
3D9794D5
BD7CE239
3D49F183
BCC24D8D
3D39C9A5
BDB74E24
3D093523
BCBCE11C
3C00C3EA
3C02E2BE
3DA01311
3DBA15DD
3E073023
BD8BDFAF
3E23E086
3D8CCFF6
BDAAFBAA
BDD614C2
3DBA1693
BE13BB69
3D10C103
3CCE0282
3DCA6400
3D0ABBA6
BDEA67E3
3E089259
BD8B3BAC
BD657CDA
3D008383
3D7476F5
BDE1A799
3D8862FA
3DCF3C8C
3BC2D72B
BD897A56
3CC1BAE6
BD9F2D28
3D3F042A
3D8580BE
3DC82A61
3D11B994
3C80BAFB
BDE91988
3D30B8F5
3D809590
BD54BFB5
BDB79F26
3D39ACCD
3D21864A
BD34DE0E
3BFC4B40
BDF6A87D
BE141C69
BD69E366
BDD7D42B
3D77991E
3DA63098
BC7908D5
3D52E1C2
BCD64943
3C4A0AFC
BCA62985
BDD005F7
BE0285A4
BDAB9F43
BB75B625
3DF48DC1
BC8D07A0
3DD813EA
3C9B09B1
BCC25BE5
3E05E159
BD34540D
BCCBA245
BD2DB9E2
3E29BDD4
BDA349D1
BDA4D2A4
BD9EEF32
3C9E6C72
BD8524ED
3D3358C3
3E0F0687
BBC257E9
3CF26C34
BD00D3EB
3D92585D
3D9B5D43
BB9B6851
BCABC890
BB952658
BDD9AB78
3C363962
3DB0C1CA
3CDB89AE
3A80CCEF
3D968891
BC612C8B
39F894A7
3D760FBC
3D7FAA7D
3C9F92DD
BDE2797D
BDB14535
3DA78767
BC5D5175
3DE918BA
3B59ACDA
BDAC7A96
BD7B5FFD
BD79E5AA
BD91E526
BD3803F0
3D87750F
3DBD7263
3D703A35
BDBAD53E
BDAC598E
3DF74A1C
BD6C5D6C
3CCBB692
3D8F35AD
BC66F8C8
BD98F510
BDB5A255
3DAA3448
3D1F2F86
BB7FE700
3D658FAF
3D90976F
3D6942B7
BCF27487
3CAD4D0A
3E03264C
3C749513
3DE04F71
3E13102D
3D3DC114
3D747845
3D21D40B
3D272EB6
3D8DF527
3DB8CCD0
3DF673D6
3D37D2FB
BD8E3645
3C977FF9
BD69604E
BD8ABF58
3DCFF243
3D3645B2
BE1A9B74
BC71695A
3D038703
BDB0C5A4
BD93AF24
BC8B4C74
BE1D2A1F
BD03E664
3D4E9892
BCF23BDD
BD5938EC
BC5DECB0
BCE671A4
BD13A257
3DA24BEE
BD040D9E
BD5FF3C6
BD087BC2
BD28806F
BCF2FFDD
BDA81EDB
BDC39B62
3DEFE21A
3D8CC3E0
3C945207
3D8C45BC
3D89F35A
BD0B5B56
BC8EF7C0
3C28EAF0
3C60DF08
BE0E0C1B
BCF9D249
BBEE6D86
BDE773F6
BC2750DD
BD20A9D1
3CB7A965
BCCE69C0
BCCC3F8F
3D2682A1
BB85F1C7
BA93949D
3DD17F4F
3C62A4E6
BB9406C8
3DB7FBD9
3C78A187
3D20706E
3DBB9AFE
3D8E5E3D
3D99BB5F
3D9026D1
3DBB20FC
BD6961BE
BD8BCE3A
3DFC9EC0
3D458240
3C017393
BDEE98F2
BD5C0F3A
3CA1A074
BDF25E6C
BD466EAA
3C4F06D9
BD494DCC
BDC539CD
3BD4BE9E
BD19026D
BD6D718B
BDBD78BC
3CCF39A9
3D88B51F
BE1710D7
3DB201BB
BDC2B1BB
3C8BCC1C
3D994F08
BE0A0396
3DC7D757
3D25CC68
3CA7E933
BD8766A0
BD5A9179
BAD8731E
BD5FDF94
BCFCDAB7
BCFFF90A
3DA8A465
3DAFFDE6
BD806756
3E103E5E
3DCB1975
3DB1F8CC
BE1F65EA
BDFD609A
3D266D55
3B3F0869
3D8EA0DA
BDBF87D4
BE0EE67F
BD22C16B
3DA5C4CB
BD039192
3D8C0998
BDEECE6E
BE0E3429
BD828EB7
3E2F1E6E
BD03F6A2
BD1CF30D
BCEEC5B0
3E00364F
3E4596A3
BCEE4598
3E195983
BD310279
BD8C5DE4
3D2E6632
BD8A8697
BD2F6F1E
BD96DD10
3D592708
BD14FD60
BD53EEF8
BD70BA52
BD065FA3
BD6C4818
BDE0871B
3D859432
3D6FD161
3D940AFA
BD7BBD78
BE0A8AD4
BD02CAB3
3E210A2B
BCFF6C6C
3DA0D724
BDAF1AB0
3E018604
3DA0565F
3DA27F6F
3D50709E
BD3B4D36
BDF1AB72
3C27CD64
BDCBC6B7
3D56F03A
3DA70F39
BCF64DA5
BD400FF8
3E2F63E1
BBD4E473
3C5D3149
3DA71883
BDDF30D0
BD555B3C
3BCCB15F
3D5C9A48
BD5365CB
BBD57F0D
BDF753A7
3CF171E8
3CA2B37E
3AD9F24F
BE02F4B9
BCA77B09
BDED5F4B
BD936CFB
3D05CDEB
3D5E7E68
BDC0802E
3D45D039
BE10D63E
3DA8EB8B
BDA96F42
BD85DCFF
BC87416D
BD87DA32
3D84E7E9
3D5A5734
BD664E63
BBF84A54
BC852767
3DF5F7A2
BDB751C6
BD9784A1
BDC87C64
3D9550E8
3E03E032
BB962297
BD1D4992
3C4D9534
3E03CC4C
3CDF0ACD
BE1BF5BA
3D341DA4
3D7909DF
3D94A6FC
3D897F0F
BC576E9C
BD4BCED3
BBA425CF
3DC9D807
BCDA54D0
BDA6C216
3D2C8C63
3E1913E4
3DBF616E
BD459253
3DB0A703
3D8C4DFA
BE0A664B
3D70B0BF
BD0203F4
3DED2258
3DA098F5
BE0F6AAF
3B0195ED
BE1D9E0D
BD818390
BD9FC423
3DC0C463
BD3B24D2
BC223A12
3B0C7340
BD804F6B
3E0203AB
3CCABA6E
3DAF53F7
BDBA459A
3DD822A0
BDD1F17D
3D59E193
BD1CC9E8
3DC1896D
BDB5831F
BDA72292
3DE3C903
BA425F36
3D0A1F30
BCF4923E
3DAE5063
3D68A540
BE127D0D
3DD1FE66
3D307EBE
3D6B51E8
3DC8129D
BD9C53B5
3E10C3CB
3E128E2E
BD827574
3E05C99E
BC04BDEA
3C42A0A4
3D15CEC4
BC27854A
3DEF84C1
3E0C0F5F
3DCD2C3F
3DEE4F9D
BDBC0325
3DFDB55C
BD7B7B41
BCEB12F9
3B92AC15
3DEC89DB
3D9E5E76
3C739EE9
3E0D0E86
BD5CE492
3D225F53
BDAD3833
BD51BDAD
BE008C16
BDA37250
BC8ACE55
BD9062A5
3CF8B823
3DA8337C
BD8AC67C
3DB7E7D5
BDA232E0
3E039C48
BD627CA5
3D25BE33
BD987C1B
3D275676
3DB1499C
3DD060C2
BE14728F
BD1D9490
BD739F95
3CA8DE86
BD824394
BD9B7C98
BE06F5DA
3C1BCA20
3D074678
BDA9EE03
3DCC2863
BDF8751F
3D686783
BD9FBADD
BDAE363A
BBA7CB61
BC6A8092
BC265F5B
3DBA09CA
3B3C72E2
BC2439E6
3DD91BA6
3E0B838A
3CDF39DC
BCDFCB07
BE0C0231
BC0D01FC
BD0CE62D
BD82EFF4
BE1F5009
3D5307BA
BC916BE3
3D9DE109
BDA51094
3DF1D36E
3DC17FF8
3CFA25C1
3D74B61B
BDAA5DF1
3DDDC67F
BD197ABB
3E0A4891
3DF5ACD3
BDF83A4C
BDEBD7D4
3DFB8333
3DA2D428
BD0ED794
BBBB41CA
BDB2731B
BCEBC9D3
3DC01CB4
3C652182
BD8759D2
3CC6B896
BD9E85DB
3C7B9933
3C9322E8
3D4E6508
BCD361D7
BB8985D0
3DF4CB6C
3C9D6E7B
3D874B77
3D8A3292
BB84EBE3
3CF68B98
3CF798B3
BD164727
3D5A8B5C
3D8C1468
3DD7128E
BD03A501
BD369B40
BDB8E51D
BC19B838
BD481A18
BE07DB27
BE00074F
3DEB68FF
BD0930FC
3D9837C5
3D8ECF7C
BE167C51
BBD6C574
BD386EA7
3C88F140
3D8781DE
3CEFCA93
BD4A41A5
BD5C2692
3E0992B1
3D1285F7
3D0D0506
BC9E871F
BDE12F73
3DEF9FF9
3DC4C638
3E0A2FB1
3D05B386
3B234F7B
BD3B05EB
3D2E997B
BD343E15
3D81FED0
BD96E926
3DE625B9
3CBC7A54
BD23BB9C
3D33AA6C
3CEAE37E
3D2652B8
BB9BE11D
BDF7D9CC
BC8C7483
3CA16337
3DC7E508
3CC46F91
BDF19A14
BD01BBE2
3DD7DB18
3C9A63F4
3DC0DA9E
3D925FFE
BCFA7E76
3D53C420
3D75A18D
BC3CFE43
BE230403
3DCA2BBD
BDFCCCBF
3D448015
3CA66C00
BDB97DF6
3D916A09
3E070D4B
3D9EB710
BDDDD251
3C44218D
BD2EAC33
3DAF80B3
3CBDE757
BE07A22A
BE0B17F6
BDE87470
3D502925
BE0F2800
BE06BB15
BBDD7A44
BD55F245
BA0ADF97
BDE71137
3D935524
BE1A2AC8
3D1773AA
BCA0967E
BDA7D8D3
3C87127E
3D03B864
BD98ABFF
BD1F0918
3DCF2BD9
BC8F57D7
3CF46319
BCD1CBD5
3DE02527
BDE88B3A
3D80D96C
3CC864A3
BCEF84E3
3DB8021E
3CB1D793
3D27E071
3CB67AC6
3C9A611F
3DC48719
3BFF2793
3B5DFA9D
BC4F77F8
3DA30886
BD524623
3D3B8B8A
3DDF1D2F
3B9B7DCA
3DCE23A3
3C99671A
3E0C8BD5
3DE5B76B
BE1196E1
3DCDE828
BC04D095
3DDA0335
BC203514
3CA821F8
BD7670F8
3D10D507
3D95C97F
BDAD673F
3DE28163
BDAFB063
3BF6A462
3D0A27CF
BC9ACEF9
3DEA54E2
3CE27CCD
3DDE1BB7
BD9DDBDE
3D259210
3C8856BC
BCACD6AD
3DBC694C
BDA6B89D
BD81345B
3D768A63
BC59580B
BDF4764E
3B5741F1
BDC03B66
3DC2AA86
BD2F3677
BC7E94FC
BDAA9935
3D945A68
BDB32964
BBFF816A
BAA8178C
3DA74F01
BD0AEF6D
BD845222
3DCE5E03
3DD2AB6A
3D0BFB7C

