3DD2E1E7
3E8B84E0
BDC2528E
3D09E511
BDB7650B
BC3A95D3
3DAE0A86
3E1C94C0
3E2FEF62
3E34A16D
BDB2652D
BD7557FE
BD4A281F
3E39B0FE
BD439810
BCDE6C7D
BE29034C
3DFF9FA8
BE38876D
3D49DF7D
BD484731
BD9E554C
3D622F90
BD887D6A
BD49C9AB
BBA7CAE0
3E2FB4DE
3D9DE142
BE2DC543
BCC690DE
3D82605D
3D256B21
3DD5328B
3B28C028
3E724080
3E3B2568
3E205CF5
3DAD83CB
3E06D1CA
3E067570
3E900840
3E0C2F52
3CBCAA35
BC1E527B
BDB0E8BE
BD10D27E
BCF45430
3E9641DF
BDC87122
BDA9EF54
3DAFBAC1
3E58F65C
3E0E67D1
BDAAC24D
3D065031
3C2E6CC5
3E8A6BD8
3CFEC27E
3DCCF5D6
3E2EC825
3DAAA5DF
3E904ECA
3DFF45A3
3D729EE6

