3DCFA558
3DB5FC31
3DCBABEC
3D88CC4B
BD082F94
BD6D9552
BDB3AB03
3D092B7B
BC07DDC5
3BBBEF19
3C10CBE0
BD0ADE1A
BDAFF5F6
3D893451
BD6A11AC
3E08063E
3D83467D
3D7049C4
3DA0F4F3
BABFC01F
3DF536F0
BDA6E7E6
3D111A95
3D9D3CE9
3C774511
3E1DB3C7
3DC69663
BB9AC1B8
BDCC6147
3D96EDC0
3D877D89
3C00CBB8
BC299DBE
BCD3236E
BDEB0B0E
BD75B049
3DE8BDAB
3D83DE97
BC5422D7
BC4A792B
BDB06497
BDB69D4A
BD804209
3DF91FAC
3D952CE0
BD5F4B34
BD5BC4AF
3D8DFCEC
BD3346D4
3D80C170
3D19745B
3E17D57C
BB85547E
BD391F86
3DA826BD
3D63BB81
BC15DB5F
3DDCDCB5
BCB6E2B0
BD54DA65
3D87A96B
3D2D993E
3DBF2D26
3E1CCFCE
3E061800
3D198B49
BD89FC45
BD0FFC5F
3D809BD4
3D9B0182
3E1F854F
3DD11C44
BE24BFFA
BDBDEAB2
BE0E83CE
BD942F1B
3CCF8CB6
3D5FF9C3
BD8160F5
3DAD68C3
3CFB630D
BD8B39B6
BDFF9A44
3D2E0F7A
BBD8995F
3D908278
3D2FA857
BE2CA41A
37BB3BD6
BD826328
BDB0D2D4
BC7D8DEB
BD46E9B9
3D149045
3D18337B
BCDEFED9
3D4CFB81
3E21EEEF
3DB908C3
BD345E97
3D503565
BCAB402A
3D410E60
3E2E80C0
3D372ED3
3D9E8487
BABAD279
3E276C42
3E34E3A8
3DCEFA6C
3D9B2E15
BD3AF29D
3E0A64CB
3DAC096D
BC9C2260
BD55904D
BD0130AA
3E1D0767
3E0D46FB
3E0C5435
3C2F261E
BA341F2C
BDB6F958
3DE6C709
3D8051CD
BD9F2982
BDF1D9C7
3CDF43B8
3D919174
3DC2F1DE
3D3BE1AB
3D49DB00
BD28C25C
3B967DDB
BD32E31C
BD88064C
3C86EA3A
3D1399EB
3D5BA9C2
BE28B097
BE08BFD4
BDF1308C
BC48C62D
BDC084FA
3D6DD1EB
BCBA6AE0
BDB0A8F0
BE202BD4
BD5608EE
3DA4812F
3DFB4CE5
BD08019F
BE1F31E4
3DBA4FE2
BD580E8A
3DBED112
3D4FF434
BDBB0979
BC4DFE9B
BDF4DC5B
3E3124E0
BDC2740F
BD93E6F2
3E25696B
BD16EE0E
BD575CB3
BD995BC3
3E080871
BD5F6622
BCC0320A
3D3D0534
BD7AD8E2
BCECBF5B
3DE95930
BB84F9CF
3DAA8404
BDE25F14
3C1BA624
3E22B289
BC9858C7
BDCD4C92
3DE8DEE7
3E134741
BE2EB2EC
BD2EAFF6
3DF44436
BD981FED
BD9D4D5F
3DAFE096
BD984BC6
3C8CF04E
3DB2215C
3DED4AFF
3B553C88
3E05F517
3E0DB813
3E12A158
3BA35646
3DB13C00
3DB834A9
3DD4D356
BCB08975
3BA0E223
3DF2B64A
BD039F11
3D8F53A3
3DCFE024
3E0DDC56
3E00F94C
3C348070
3D8619B6
BD46B1FB
BDACE774
BE1E1850
3C804C0B
3DA82F30
BC196537
BD539B6B
3D4587D7
3D8C94E5
3DAEA6EE
3D36DBCF
BDF6CB57
3D4C99BC
3C6A5A1C
BDEA3A68
3DF137C1
3D8AA842
BE093C8C
3D76FA0A
BC988827
BD73A11A
3CD0501A
BCC88FD7
BD0DD26B
3D3F182E
BD134B5C
BDBAFFE6
BD68E613
3DB2C5B7
3D29BC19
BDB55193
3D8DDDDF
3DAC9062
BDD4B4F5
BD1E6840
BD810B0A
BDB2C317
3DF7618B
3DD196EC
3D417525
BDB6C01B
3E0DB656
BDAC69F2
3D0EB13B
3DD47935
BD99D0FB
BB6C1EF8
3DCD2D83
3DF1894B
3DCC33B3
BDA36D6D
3DAE80A0
3D1C187F
BE02BEC6
3DBFB514
3C23A9D3
BD299616
3C5EBF69
BD3BCF6C
3DBC8D4A
BD2B120D
BC5D6353
BDC76FDE
BDCE3C90
BD8881E0
3DCCEA92
3D6D67F3
3DEA6B9C
3DC1FE3A
BCD79B32
3DA76014
3D3891CF
3D87F507
3E15F310
3DE8D156
3DA4EF69
3D6ABD28
3E134035
3E109AEA
BBAB3F9F
3DB964B2
BD4811BF
3D812DDC
3C5C1778
3DA87DB9
BDA70C87
3D08CA57
3C10073F
3D779FDC
BD943112
BB01D888
BBC15D42
BD4AEA09
BE1377C3
BDD769D1
3DBBCEF9
3E043E40
3E009CD0
BBDC90BA
BC8F35E8
BD07D9C1
BDE536E2
3E0B457A
3D9C3DFB
BD9EE717
3DD52477
BDC3A84E
BB884F04
3D7331C9
3C61E7DC
3BF4768A
3DDC7111
3D241FD8
BC8E1C68
3D527528
3DF15416
3C563C22
BD2BA634
BDD257A8
3D2A81B9
BD6F5106
3DABBDF7
BD996F2E
3D7F5078
BDC3A552
3CD414A5
BD743A11
BD2B4A06
BE055AA7
3D342EA9
BD9F345E
BD28663B
3D82570F
3D4C65A7
BD7804EF
3B067D32
3DB04941
BDC220F1
BC31886E
BD978063
3DB77077
3DD6C76D
BD3E54F8
3CF3735A
3C69396A
BD9A0AC6
BC807BA1
BDE79CCD
BDFCBF70
BDAC25D6
3DBB6AB2
3DC7973B
3DF3F2A6
BD3590AE
BAE79149
BDD4791C
BDCBACE7
BD5FF152
3E0A9018
3D67F5AD
3D828EDD
BD47E511
3D09EC42
BCDC4048
3AD6EF3B
BCEFD44E
BDA3F727
BCF2B996
BD9772C7
BD23EDDE
3D901CA6
3E05628A
3E0738B4
3DF5A48F
3D5C0D07
3DA32460
3C4B1298
BBBC8EFD
BDAB5E82
BCC556DC
BD16782A
3DDD431C
3C5E1BB4
BD63A043
BD87BAF9
BD99962F
BD01525B
3D1E2728
3E048198
3DA7FC61
3E0179F7
BCB5E64C
BD80472B
3DC86D57
BCDB0B9A
BD4660E8
3C4D3700
3DE0DDA1
BDF33D2D
3DC489FB
BCF7DFC6
BE084AC6
3D842C2D
BC952D99
3D58CF5F
3D8A9D35
BD3C2D80
BDCFC2EC
BC8FD134
BD71FD66
BD893C17
3DF81095
BCF4F48F
BE0D4C1B
3D367B75
3DED9839
BDAE939C
3D48DBFF
BAD35629
BC4D4E32
BDF6B40B
BC603616
3D57DED1
3D8995F5
3D8F51F8
3CFBA0C5
BDB349DD
BDCDC0A7
BCA6DC32
3DC786BF
BDA5FF8E
BD949AEF
3D46C89F
3CF40CE8
3DDA9BF9
BCBE9638
3C6FFECB
3D33D953
3DF6C99A
3B27C1FB
3DD1206F
BC836D9E
BD953CAE
3DDA1F22
3C7C0B9F
BD6F681D
3DB69623
BD1C6DD5
BD87C44D
3D714997
BDC9E0BC
3D01617C
BD71B4E9
BDCD7A34
BACEAAF3
BDC7A752
3DBEA8B4
BDB5AF77
3D938EA3
BC8636F1
3D5837E8
3D8FF48F
BE164AA7
BE05052F
BE1D35B5
3D78974E
3D795839
BDE7BDDC
3C7CCB98
3D88B14F
3DA76060
3D8301F0
3D5203FC
BC063C5A
BD785778
BD4274C7
BC651127
BD8375AB
3D0002ED
3C2E41E8
BDEA9C7D
BD129FC5
3D446A70
BC2A8CB1
3DBFBFD6
BDEB1E41
BDA0FFAB
3D78DD5F
3DF97FB3
BE0A3D53
3DF54EEC
BDB41054
BE063AD9
3DB9A118
3E153F5C
BE0F03FA
BD213B74
3D4659E7
BC0131A4
BDB587D3
3DAEE173
BD0DCDEC
BDF34AD2
BCF61DE9
BD99D868
BD0EAA3A
3B6C42DF
BDB34E25
3DC446BB
BD1901B1
3DA1DBFE
BE119D7F
BDE17A47
3D9BF8AA
BD78D158
BD64C6A1
3D303F96
3D7C40EE
3DE5BBC1
3CD27F74
BDB6A74B
BBEB7E7E
BCE27DA4
3E0DAF8C
3DAFE477
3CF19559
BDB31A69
3D93BE98
BDA10017
BD0C005F
3C36CF2A
3DD7EE68
BDDC38BC
BD9A0757
3DBB08E9
BCA3BEC7
BCC2A988
BCE026AC
BDA0F6FB
BCF703C8
BD38BB90
3B0C4A7C
3C127497
3D842CB8
BDEDCD48
BC97B8AE
BD28BEF9
3DBBE7C0
3DA50448
BD6049A4
BDD6FE06
3D8D36F7
BDFC7423
3D1D451A
3D665ED2
BCAFFAC5
BE02E90F
BE0C271E
BCE3507D
BDE1B290
3D952C22
BD918DB4
BD6FB34F
3D08CE0D
3B3BDB38
BDD1815E
BD89672A
BC671AE2
3D7B5FD8
3CC61F49
3C38B035
BD974139
3DAB10F9
BD004FEC
3DBFF8E5
3D059688
3D35C173
BBD397ED
BDE8D5EC
3ADA45DC
3CE37F8C
3BD04B1C
BDA34D78
BD66A6C8
BDDE0D0C
BCC99A68
BCDD53C3
3DA2D77C
3DE03584
3DBACEAA
3DF807EC
3CA361E5
3B97EBC5
BDB473E4
BDDF2345
BDF4AA4B
BD84D03B
3DA1906B
3D9E515E
3DB62ADD
3DA96991
3DD6B399
3D58196F
3CB4E535
3E0754F9
3DEB2F5A
3E1CA8C0
3D9BB7A3
3CE55DAD
BDABDF82
3CB8A710
BD3E0B3B
3D85B2AD
BD8910B9
BDD4B121
3DD1DBAA
3C8EEABA
BDA262A3
BCF554DC
BDA8D371
BD955B34
BA3801BA
3D6C728F
BC9BC934
3D918476
BBADBF81
BCA07FC2
3D6C1DA8
3D3A18A5
BD211142
BDA17ACA
BD87BDE0
3D5E3590
3E04B83A
3DDFC601
3E0EDD6F
BC37DDD2
3E1AC732
3E398B4D
3D89283C
3D052AA2
BCE8D90D
3DD2EE62
3DD66FF4
BD0FDFD7
3E1773E3
3D545E4C
3E1FEE08
3DE368FD
BB0AE31D
BC3E7C72
3D9A84E7
BCB709B2
BCF0DCFD
3E20360A
3E2D51D2
3DA1E51E
3D1157FF
3DF7B7D8
BD03C5ED
3E33D70C
3C8A623F
BE2152FE
BD27B112
BD0C30B5
3C358B27
3BB1C118
3C4B5D2B
BD95F3ED
3C7CDF19
3E471E86
BD851C1F
BBA2F726
3E124D42
BDA0B83B
3AD32831
3E4357F2
BDA4C755
BD47256B
3CBB849B
BD6FFEA0
3C6E6CBA
BD66E705
BD506C77
3E15618E
BD9D63D4
3CF16EE3
3E2621B4
3D129D79
BD8749A7
BD0A23D8
BD216C29
3C11DCAC
3D301234
3D96834B
3E3A0330
3C4C0B92
3D8CF1FC
BCE3D80C
3BF77BCD
3D6EBD7D
3B494503
BDA67529
BCA45656
3E070C6F
BE5249DD
3CB7A4C7
BDAA5C41
3DAE96C1
BDA9537A
3E2F7AAD
BCBDF5BA
3C7A9CEA
BD82B03C
3E34ADBF
BE33822F
3B5D44EA
BE2EBA4C
BE2F87A2
3E39CB26
3C58EC76
BE458393
3DAB2292
3E0EA62A
3C96F428
3DB06C99
3E04F9D2
3CD858A2
3D7A032C
3E1EB398
3E276168
3D5E16FF
3DDCD148
3D03F941
BC385918
3ABCD0D6
3D8277AB
3E0A5752
BC78099C
3CA255BB
3E0E3A12
3DB05CCD
3D5F0323
3E013726
BCB332AD
3DA09DDC
BC69C063
3CAF3BF3
BD4711A7
BD8528EA
BDAD7EA3
3B020D36
3C6F9091
BDD1166E
BCBE67F0
BC417A69
BD8049F7
3E00568A
3DA71867
3C177A65
BC3432ED
3CB61EA5
3CE95986
BD5FD9D0
BDB6F72C
3E09DC5F
BDC7BF78
3C739D91
3E02ACC0
3D1BE53C
3D24AACF
BCBE275D
BD90D301
3D56A924
BE0D030C
3CEAA7EF
3DEDD362
3D11F447
BBE894A9
3DD55A1A
3D81A23C
3C46CA54
BD10866D
BD7CB8F3
3DB4CE81
BD446D65
3C7E456B
3D8818FB
BD06FBB5
BC8C65BA
3B1CCD81
BD54AFA5
3D62882B
BD9A298C
BD3AC9F3
3E0C6D1B
BDA94E3D
3D308ABF
3BEDAE6F
3D99DA4D
3C866FCC
BDEF8ACD
3DD1F432
3CE9A2DC
3DA79500
BC4BBF7C
3D939A68
3D427962
3AED4E4D
3D81FD17
BDD76DD7
3DA66D79
BD91BF51
BD0CCD30
3C9D2092
BDA3E033
BBB17C4F
3E0D08CD
3BAE9CB6
BD7C5749
3D5E449C
BDBC3557
BC401DBD
3D86C17C
3B13F33C
3CCBA0AD
3DE8E2EF
BDB52E26
BB097636
3CE19FF3
3D96FE9B
3DB38DEF
BDA2B6AA
3D5EF325
3D3BEB3B
BCC086E9
3DB60B3B
3DD02277
3E1E3BD6
BD96B60E
BD963743
3C815CF2
3DA45B21
3AEE215B
3D09645A
3D003778
BD110516
3CF3EC10
BC961530
3E112F6C
BC60DC79
3E04EE4D
3D5A2499
3DA42577
3CE61C6A
3D7957ED
BD950ED7
3E128937
3CC112EA
3C8F3FE4
3D22F0F1
BD25390F
3DF4DC0F
BCDB51D0
3D00DBA0
BD41F228
BDCE07C9
3DED64D7
3D6C00E5
3D311115
3DE7483F
BDD42648
BDA9958B
BC1A933F
BD5FF0FF
BD8F3749
BD6AD3F4
3D202097
3D37FB6C
BD1723AB
3DAC5054
BD0591AD
BDDF286C
38AB3B83
3C7BF1D3
3DDD80CA
BDD1D730
39158995
3D3C0AD8
3D703064
BE008CBD
BE0D886B
3CCE0318
3C3FA47B
BD9DC048
BDB4A082
3D878F4D
BD22D1BC
BD90A541
3BBE775F
BDE8BA3E
BDF2C1D9
BDA93D47
3E046224
3DE75215
3DC7690B
3C2D5D46
BDEDE70C
3D738045
3B277981
3DB8238F
BDA3A703
3D8CB3DB
3E18ED2A
BC99FD2C
3DF1276D
BBAE3822
3DCD3C49
3D652E3D
BCAA7B29
BDA53C1D
BD592AD9
BCB3A6C6
BD6A3F97
3E16326B
BDA730F8
3D8821FB
3D203857
BC0E1EF2
3DFAC2C3
BD9BF233
BD50CD62
3D061D5E
BD951922
3B9CC141
BC787AD1
3D5130BA
BD3FB039
BC4F72FA
BDD1872B
3DB479DA
3D613969
3DBB238B
BD483995
3DF69AA4
3DC80E48
BCABFA65
3D8176EE
3DA3D9B5
3E05F37D
BDFC3E7D
3E02F866
3DF4A9E3
BD5BBE85
3D3187BD
BCB93068
BD41A130
BD01D16C
BB39EC75
3D85601F
3DB685ED
BDE94972
3C70EBBB
BD5F6510
3DC694E5
3D9E7E9D
3D9003DB
3DF6DBCC
3E18D1A8
3D9E31BA
3DDB0FEA
3DB5A1B0
3DE643BF
3DE970BF
3DA7BD85
BC676B8A
3C5096FC
3D16D877
BD9D9345
BAA7B38E
3D9BF77C
BE01024B
BDADDA69
BCDCC9BA
3DAB177F
BD0BC49F
BD64DBE2
3D0FC90E
3E2168C1
BE158206
3D274EE1
BDFDA207
3DE58E2E
BE1ACD9A
3E0E6A6E
3E0C3A3D
BD0E24AC
BE0ED953
BD905A60
BCDACE93
3CD9F70D
BD9B91AD
3B03F949
BC7D0CC6
3D7A193E
3E06C0F1
3DF09668
3DEB7E2E
3D857872
3D3EE162
BD6F63E3
3CEA5442
BC937D8B
3E0E16C4
3D8FA69C
3DDE61D4
3AAF42F9
3E193954
3BA4AF8D
3E08EEB4
3DFEE4AE
3D0C0AA3
3DA555A4
BD9E86AC
3DA8EFBC
3DE1AE55
BD583192
BDA39790
BD008902
3D11F3F1
BD50EC14
BD105F0B
3D988EAB
3D959463
3CCA3533
3DBBE24B
3D893979
3DCCECB7
BC6BD902
BDE94A05
3C526EF8
BD15FB19
BE05D198
3DE095CB
3D4731FE
3D979A75
BD7AE026
BCB23A80
BDD96000
BD152BA3
BD6D700B
BCB83BCC
3D9E33B8
BE093A68
BD0CAC51
BC8769A1
3D871FD5
3C69F38F
BD3E0A34
BDA3DB25
3CCCB82A
3D9AA8CC
BD9EA70E
3D28D462
3B527050
3D0395E7
3DDFE245
3DD3E88C
BD0686E8
3DACFAF0
3C19B858
3DC9D4B3
BD9EC173
BE0F0E66
BD214B3F
BDCC022A
3DB5F7B0
BD8E7158
BDA3DC11
BD207305
3D65CEE4
BCA265CB
3DB74E0A
BDFDD38B
3CAF9E9E
3D802196
BCB602C6
BD7FB49B
BD37D6AE
3BF5373A
3D846079
3E072DC9
3A38E691
BDC1A4BA
3CDB21C4
3DF9D13B
3DF179C8
3D83B960
3BF6FD78
3D87BD65
BCF19198
3DC73737
3D5CF2DA
3CBE811F
3C8A03E5
3DF10D26
BD90D262
3D391E4A
3C6F583D
BD55C693
BD3BC307
3D7AE7D0
3D124D5D
BD5B3DB1
3DEB5CD1
BD4B7168
BBFEEB43
3BDC1367
BD29B2A4
3DF821D2
3CB31805
3D7B7E63
BDD6A0F2
BD30B1B1
BCC14B2F
3B9DE192
BD5BA8A0
B9CE5EC8
3E03450A
3E0A69A7
BDD405EB
BDC88CC1
BD9FF787
3D334702
BDB66FC0
BC6BC6C3
3DE4CB90
BCCDDBD1
3CD72682
BDEA2E0B
3DD0952E
BDDA1E18
BCCEB748
BE269353
BD0D08AA
3A5DE853
BE068B97
BDDFFABC
3D2C7B51
BCFE6CE8
3B58508F
3C937BDE
BCE061B5
BD8E5DF8
3DCCADA2
BDC1A6DF
BD129284
BCDE8D1E
3DB708ED
3C8AD9E3
3D4B1F30
3DB40447
BDDEE489
BDA0FC4E
3DDD1880
3DEAC7D7
BDB8C564
3D2598AB
BDC6BA26
3D7036EA
3D0346CF
3D97614A
BDCCF521
BE0F5067
3CD90D02
BC4F45D9
3DE4B476
BCBB662D
3E049F14
BC85EF38
3DBAD08F
BD440AEC
3C2DEC21
BD3B8B09
BCEA71B9
3CF0587D
3E0B587E
3E21ADF0
3CFC7AF5
BCBE436D
3DA0BF1A
3D1D79E6
3D503346
BDA0D3E8
3E026572
3DD36F99
BD628BEC
BD076F55
BD899474
3D53E3C5
3E13CB12
3D48EABD
BC1EC344
3E1D26B3
3E0527DD
3D9C9ACB
BC874DBD
BCC2AACA
BB7CB720
BD65F5A0
3DC4318E
3DDE59FB
3DD07B30
BE0B604E
3C8F3700
3BFD0FF6
BD751B9E
3DE8C6A0
3C3805D6
BD4ED0C9
BE0E62AA
3DF8C9A7
BD4B2327
BE20C0B5
BCB5D86F
3C40B7CB
BE0CFE39
3C8CD719
3C802874
BC7F6DA9
BD1F3B09
BCB3B7A3
BD36150D
3CD332F3
BD102AAB
3D733221
BCCC7F60
BD9CF0FD
3D7380F6
3E394DD7
BDF58531
3D35B5C4
BD29770F
BC34CF95
3DDCCB03
BDEA8F9D
BC448F3C
3D787EF2
BD8DD342
3D0B30CB
3CDF1ABD
3E03E05A
3D1A0DCB
3E07BBD8
BDE66F77
BC85CD8F
3E205EA3
BDCA05AF
BDFDF878
BE0479AC
BD5C4F94
BE0F8437
BC8AF5C2
3D6F2364
3DB9F84C
BBCA7EEA
3E3F1279
BE215FF6
3E08A5CA
BDAEF862
3D679DDE
3E32E0EC
3D615F5E
BDD82927
BD14A70E
3B1D2F25
BC9D11B4
3D382F39
3CA0E893
3D9CCFC0
3A40F177
3DB95311
3D1ED01F
BADF13A1
BD86919D
BDC700D3
BBE6F62E
BE00D8D8
3C04EFB4
3DC093BC
BD3F0E91
BD909C4C
3CFC9974
BDB0313F
BE007701
BDE5A384
BCEA1629
BDEF5786
BC4C6FA5
BDB888E6
3DCA04BC
BDBF48B4
3D3A6780
BD7570AD
BD9DFFB5
BD903089
3E25EF66
BDC5098B
3DB9E07F
BE038A60
B9B469AA
BD46D973
3E1672EA
BD15EB6F
BD9CAA7B
BDB5583D
3DC10E69
3B948E82
3E16B9E0
BDF2F6B2
3DACAB8B
3C6ED54B
3E11297A
3DE4D786
BD8DCC3A
3CA04F15
BD8FEEFD
BD8B4A80
BDA04717
3E081B35
3DB72360
3B895A47
3DAA609C
3DCD64B2
3DBD3713
BD81F698
3D45E5C3
BDC834D9
3D8E1FB9
3DC2424E
BD75A6C3
BB9F3B85
3C9416EE
BB5C0981
BD92F995
BAEA234A
3CD2FAD4
3BC55BEA
3D23568F
3CDCA3FB
BDB63B69
3BC85BA4
BDD39DA4
3D6006CB
BD405728
3D309284
BC891278
BC224397
BDA13FCF
BC6DFB10
BDBC9C3E
3D7A8D32
BD35A843
BD1C6EE4
BDDF4638
BA2E520D
BA1CF010
BE24BA03
BCC63ED9
3E09A76D
BD0A56E9
3D9C6044
3D27CD54
BDCA4D4F
399AAA3B
3D8DEDFF
3DDD5810
BDC3078E
BD17196F
BD9C47F7
3DD3A8F9
3DF0D656
3CBB69A8
BCF352C8
3CC8E3DA
3C8582EC
BC121A74
3DBA19EB
3DB092B6
BB95B8FA
BC9B1C16
3E139B33
3AC264EA
3CAEC7BF
3BACCE80
3D08BDE2
3DB86DA2
3CCE8935
BD23869B
BE0D1BCC
BC5B8562
BD7D31A4
BDA0D148
BCD7A213
BD91C07F
3E01E475
3D668A2B
BDA99443
3B4EAA9D
BAC7CF0C
BD91A785
BDBB0903
3C3D0869
3DC9FEE7
BDD9C45C
BC8D9F25
BDE9E167
3D884E1A
BCF752F8
BD315555
3DB64ADC
BD1757DB
3D139AC7
BDE13270
BB30145A
3B6B1994
BDAA636D
BCEE1C12
3D861DFC
3DC701AC
3CFFFCCB
BD7DD79C
BD16277C
3DF67264
BE116F38
BD20598A
BD4B8B16
BD8B09B3
BCC689F2
3D12C05F
3D585FA3
BD2B9DF6
3DD72730
3D12BD2F
3D7D2FE1
BDEB1990
BBDEC41B
3D8076E1
BC260D70
BDF8C18D
3C9E4E7F
BE0FAB75
3D0B0D0F
3DA63960
3C55EAE3
3BF31348
BD6AC95D
BD2D897E
BDA9CE30
3D6CD198
3D6589FD
3E088894
BD5AA825
3E13870D
BAD000DF
BBCA1248
BBEC4273
BDB4ACFC
3DBCD336
BC99586C
3B90DB1A
BD158FB7
BC1D0143
BC3F06DC
3DE88CC3
BCD16771
BD22F538
3DA07C38
BDA0106E
3DDC0893
BCFBE5E5
3CD73AA4
3DB17BB6
BD91AD39
3D88BA3A
BC903AE6
BD950C2C
3DAE0F1E
BD6744C3
3DCE1205
BD006005
BE0ED7AF
3D4C0D09
3E119854
BDBF8A45
3DB5368D
BD567814
BDDA602D
3D5CD8D9
BDDC6651
3BB2C1DF
3DEFC566
3CBA4B86
3CDE1C80
3DD03C18
3D79355E
BDA1761A
BC389AB1
BE0170CB
BD6EDFEA
3D3EBE4F
3DEBC4DE
BE0AEFF5
3C95B7B8
3DC84620
3CC24331
3D047098
BCD053A0
BDE86651
3D3A919C
BD93050D
BCB28518
3B8E882E
BDAD4EB1
BD73DA3A
BD539132
BDD93804
3BF80042
3BE8B45F
3CF3BE59
BD87A1C0
BDB73F86
3D1BAF05
BDF1FDEC
3D09136F
BD3FBB14
3DCFE63E
BDC47B06
3D7826C3
BC5120FA
3D96A5D5
3CA9B2CC
BB2BA184
BB8DD8DC
BB80C8BD
BCB60652
BDC1317F
BD242F32
BC00423A
BC80F58E
BDBA40F7
BBDD2FF1
3D8B46DB
BC8E5771
3E17E068
3BAF7711
BD98B101
3D27479D
BD98EB03
390FD7FA
3D2851B9
3D98483E
3D4E31ED
3C1AC4A7
BC885DBD
3E2C1C30
3E3073D3
3DF1E805
BD8900E5
BCC5C44A
3D2E2334
3D642648
BBD12145
3E333EC7
3E13E988
3D8AC5D3
3E0FCCB6
3E14275A
BD854052
BD1AE4D8
3A90FE40
BDD220F5
BDC4F61C
3D9A2421
BC8D6F39
3E166AB5
BC81C0BA
BCFE635D
BE0F57AF
3E1626ED
3E250D3C
BD244C40
BCCCD01D
3DB8C267
BD5DC55B
3D150593
3E00A16D
BD60DFFC
BDFBBEE6
3C94F8F1
BDE11BAB
3DB16C8E
BDA9E838
3DAAE861
BDA92A67
3D917BED
BD6EEA97
3E021190
3DBCCEA9
BDE5DE6A
3E2AB38E
3DE91970
3DD001E5
BE0E4D97
BC7F911A
BD617045
BBBB6A39
3DB20EEA
BDB586BE
3C1FEB83
BDE6E62D
3BE2845A
3D9A5A7B
3CA5EB7C
3D8C91A8
3B755684
BE1A4AE5
BD1FC69F
BBE93030
3D97CFFC
BAE782DC
BDCE76CB
3DE606FB
BE18735E
BD8B7B46
BD987D06
3C5A1B09
BE023813
BA3B4BF1
3E0068DC
3DA25B0F
BE012FA6
3E023B3B
BD47D24C
BD66A883
3C998689
3D6BB169
BD6F24F1
3DF94BB2
3CBB8D85
3D1AF22C
BD9AA2E1
BCAFA2D0
BDDA680F
BD372E52
BDCFBF70
BDC90871
BDB458A8
3D864C89
3DD68D26
BDD684CA
3D072B75
3D374BD7
BDC35E74
3D12A77A
BDA797F2
3DDB810F
3CFE6AD5
BD9F9E7A
BD2E48F9
BDCA79B4
3D42D568
3D53D7D4
BC24AF21
BDC00EA1
3DAC090C
3DC47D49
BB6B78DF
BDA22720
3DA63C62
BD0E0CCB
BD8B4E6A
3E018696
BCC7A7EF
3C977BD8
BD215F84
BC0D31ED
3D78BB2D
BCEAA621
BD98805D
BB627A08
3DC1CBA3
3DAD3446
3D79B482
BDA2D172
BE0C5C87
3D880DAA
3BBD4CE8
BD5BD945
3D9D88E1
BD8671CB
BE05A2A9
3D5AB4CA
BC44E974
3D6E8681
BD5BB045
BD1149DA
BD35F92E
3DC67AE4
3CF80504
3BBF3E9A
3BC2BF83
BD5BA197
3D5849E9
BDAB78D1
3BCF79FB
BCC1451F
BE10802A
BB80586A
BD4E2E71
3D67AFA4
BD950656
3C9721BA
3D8FC04D
BDADB69B
BD25F1E2
BDCF4C2A
3D963B6D
BD8D7158
BDDD577B
BC8D1DCB
BB2FB8EB
BCD86908
BC9A47B5
3CE57F51
3DA9ACBB
BCC35382
BB75B1F3
BD3CEBEC
BB7457AB
3E0C43B0
BBAD8386
3D3EC4CF
BD619E60
BD2B273E
3E1D1440
3D3D6FD8
3DD109BE
BC267EAF
BD81BDBF
3CB54D1F
BC406515
37D0B565
BDBB42B7
3E192341
3D301A11
3DAA5CC1
BDAF963F
3DC3EECD
BDD0E306
3D8F0DFA
BCF37FDA
3DC6D074
3D85E6C4
BCCFFBC6
BD830944
BBDB0D17
BDB87B0C
BD99960D
3C95AF7A
3DC7E313
3D91740E
BDDB72D8
BDD3D32E
BD29AE2A
BD909D08
3D2F8ED6
3DB5FF9D
3D94B270
BD640D30
3D9BD439
BC6C6C2F
BC6CF7DB
3DBB6AB8
3B9BB5FE
BD4AF6AE
BE0EAAC5
3C411B49
3DC1064E
BE12402F
BDD43E19
3D8F3FC8
3C98691D
3B9B07C3
BDAB52BA
3C5BC340
3CC3CC99
3C966029
3D956F31
3DD40DC9
BDA2A755
BD0D1074
3DCF2DB3
BD801006
BDCB5EC6
3D775F40
BDDCB957
BD5F7AD5
BD9D22E3
BCDDC766
3B856C3B
BDC0EEDA
3E18198B
BDD2AC85
3DA5AE4F
3D00934E
3DBFB76E
BE27740F
3DFAD1DC
BD0052EC
3DA8341F
BDE71781
3E13ACE9
BC0354F4
3C269B2A
BDC35081
BD1D1953
3DB80F1B
BD15B407
3D87D4A8
BDA536D6
3E0A3AC1
BCD3A721
3D31E78C
3DE94697
3E03D218
3E0CBF6A
3DFAF3D3
BB69D445
BD9C92D6
BA731968
BD0ECD50
3DA64113
3D02F7F7
BD57A6D0
BD3F5A46
3DB38348
3D407375
3C3C8993
BDDA04D2
BD875388
BDCB8DEB
3DCE672A
BCDCC929
BDC5BF84
BDBB666E
3DFD7354
3CE37972
3DA82EE3
3D884EF8
BD0B41FB
BA91E8CB
3C9E7DAA
BD5524B5
3E11D732
3CF80BA5
3D52FE1A
BE1E351D
3C8ACB55
BD406C4C
3DA98FBE
3CEF8E9E
3E19F787
BDDF034C
3D506C51
BD8D45CE
BE1390ED
3C129C90
BDA24CAD
BD1AAE3F
3D38DB81
3BB1247B
BE039AFA
BD4C3878
3C6C1B11
3D60AC9E
BC284D92
3DE14AF4
BB61A9A9
BDC5333F
BDA003E7
3D7FAD1C
3B781220
BD2DE44C
BD02B42A
BD53782D
BDBC19CE
BC1FFA87
BD688382
3E0379E2
3E02C24E
3A74790E
3D58AD9E
3BD8F44D
BC0D7E8E
BDA23620
3D9DFD2E
BDA87497
BD350C01
BD48A0F6
3E0825B8
BD875F5A
BC6109BB
BDCA14D3
BC954EB1
3CCB7A8D
BDBD1CCA
3CF0A2F0
3E022AE4
3DCB086C
BDF8FDC3
3D821603
BBCDD764
BD97668A
3DF027EB
3D167AD6
3CB7E214
BDBA2AAC
3E0B4B79
3CE5D4B1
BDB54567
BD1863E5
3D508FDD
3DD526E3
3D5E72FA
BD1777A9
BD85C164
B8AB4B9E
3E043990
BCF87A55
BD4BE747
3D3042F6
BCFF4D73
3DC54AD1
3D113778
BD4D6C27
3D917B9A
3DA29CDB
3C9EA278
BD650040
3D46BCE6
3CF782D9
3DADE8EB
BDA43A7B
BC303BDD
3DD4B3C4
3DEEDEAD
3DB01D45
BDA56DCA
BD664155
BD8D217C
3D4377DA
BE0993B2
3C238E45
BD6D2BE0
3C083D31
3CAFE57B
3C83CD6F
BDE2282D
BACB80F2
3C507C7A
3C8F6C8A
3DA2D862
BD07A820
3D561CDD
BDC25187
BCDA4759
BBDED9C0
3DA2801D
3D380575
3AC9F0A4
BDA24435
3B840A66
3DB9AE07
BDB8171C
3D674E60
3DA41AED
3D1E3F8E
BD87D46C
3DA1F98D
3C414524
BBEB95A5
3BFD1EA4
BDB6A4EF
3D961887
3CB51561
BA806CF8
BDB88C0B
BCE9BF0B
BC431A31
3D629D8C
BE12EF90
3CB42541
BB126AA6
3D7685E1
3CE08323
3D1427AA
BD9FA957
3D0B76C1
3D728192
BCF5E0E3
BE063077
BDF7F3D3
3DC136F6
3D9CC5EF
3CF6B2AA
BD6F4EAA
BD629211
BCEBFF83
BD369F29
3E17257F
3D4F350F
3DF300D5
3D463D06
3D580F76
3CECC246
3DCE222F
BCBF5479
BD99E141
3D01B5F0
3CF41EE6
3DC9F109
3DB4715F
3D4D7292
3BCA1A6B
BCE6A78A
3DDF002A
3E390677
3E01019F
3BA388C6
BCB9896E
3C09AA6E
3DAFCFF0
BBFFB0BA
3C4F9138
3DA93D18
BDB71E5D
BDD34B65
3CFC837E
3DBE4D55
3E08B995
BD828A60
3CCB1EED
3D88D883
3D955140
BD1EBEF2
3E27B3CD
BD08602C
BDC73AF0
3D7368FE
BE3F215A
3CF35F6E
3C81AE40
3D842F40
BCC852FB
BE2DAAA2
BDB33C1E
3BBFCA9B
3D2D9C96
BD6A45C4
3E12A194
3DC31A94
3E0201F2
BDD1957C
3D86EACF
3DC17175
3D921863
3D9F4B67
BD185663
3DBF163E
BD66A810
3DA3D8C2
BE2174E1
BCAE7E53
3DAE81BD
BDF4D2BD
3D2A7F70
BD71ABDC
3E2A606D
BC97485C
3D3342C0
3D749BB9
BD314DCB
BE0AE758
BC2B9403
BE19EAFC
BD868658
BD45DDB8
BDE1DD57
BC06D013
3D43C094
3C22C41A
3DA7468F
BD095D77
3D2B4C74
BE1846FE
BDF447EF
3D77A127
BD0B3B80
3D3A436B
BD0A7A62
3D1B3469
BD51C103
BBCB5655
BDEF9B02
3D6D3568
BDF72D5F
3D0A79FF
3DB07468
BDF53A7F
BDD3A800
3D2C48F4
3CB9AAAC
3DF23457
3DA18EF5
3DA5CF27
3CBCD6B6
BDED082C
3DD28091
3D99A7AD
BD96785E
BDCB8A65
BD0E0C8B
3D6C0D42
3D516BA0
3DB5BD78
BCA56FB6
3DE52C7D
BDFB5198
BCA7BED1
BD437D20
3DB060B7
BBEE0313
BDF84F46
3D88ED6C
BD898D08
BDA8D10F
3DA4B52E
3CDBECC0
3D229D4E
3D8FB1B8
3D8F5C19
3D5BFD4F
BE0CE06B
BDD35082
BC24430B
BD649F7A
BD1B4D56
3DB4BF2C
3DAC8C2A
BCA40CAA
3D304DF1
BD764B8E
3E23002C
3D90F44F
BDA15984
BD3D25D8
3DFC6836
3C9CFA9D
3BAF03CF
3D287486
BD9A90BD
3CB1472B
BD733077
BDB5EA1B
BD608C22
3DBA42ED
BD93FD3D
BCFC2B19
3BB9D87E
3D7D0C4D
BCBF0DC2
3E102F51
BD02D91B
BD67163F
BD98E9EF
3DC8EA14
BE050576
3D5FF530
3C5F13A1
BE14C58E
3DAA3B2B
BD158776
BCCBEAE0
BD623943
3D94673D
3DC8E3B3
3E144131
3E14E258
3E1B2473
BD5A4D33
3E1C0985
BD30ACB6
BD8424FC
3B689C61
3DE4353E
3CE8A642
BD28FD12
BD74A07B
3D0ED042
BD97B09E
3DCECFEC
BD5AFC2A
BD24746E
BCD5480B
3D51C1D4
3E0AD4FF
BDB908CB
3D9414E7
3C5E5EF0
3E0D3BFF
BD8B34C9
BC0E8EC4
BD92A821
3C6A5A87
BE0903CE
3D1BAE8D
BDB284A7
3CEA615D
BDAF3B3D
BBCCD9CD
BB369C34
BD1AEB30
BCFEDC9F
3DB179D5
BD9D384E
3CF9C3E1
3D9BCEF3
BDE08024
BD812D19
3DE3D5BC
BDE6F14B
BDACFC6A
3DB89E48
3DB5BEF7
BA8EA245
3D9AF7F5
3C9F9B7C
3DCAFCE2
3D9C3EC3
BDE71413
BD2BE13A
3D042894
BBAD6E8E
BBF97537
3DD91C32
3CFAC31F
BC13499E
3CB415D1
BE035C88
3D2DAB39
3CA0EF03
3DA0A30E
BC0A363A
3D6F8A84
BD53FA33
BD94ED02
BD4CA176
BDDB4946
BDA055D3
3A6C4B42
BDAA3259
3CC0BD65
3DC74B8E
BE10F177
BCB08A01
BCD30EAB
BCBB93EA
3D08471F
3DAFB2C8
BD901728
BD24956E
3D9A6A44
BD90CA90
3E0D1846
BD54586C
BDA800C7
3DB63D5A
BCB85B71
3D452399
BCFFD1A7
3D889AC6
3C9533D9
3DFD9930
BC802D4C
3D61F007
BD94DFDA
3D38ACBA
BC64CD3F
BD922452
3DA4A06E
BD68964C
3C5F13CC
BDE1EBC0
BDF492BB
BE025B87
BCA5D2DE
BC8C61E8
3C9E7D5E
BDDFEDC9
BBE1D095
BD220117
3DDA2914
BD474CD6
BD6F29BF
3E024F18
3D62E906
3DB32C8C
3E018510
BC897748
3C34142F
BD8B28B6
BBD28AFD
BC1306AD
3C0EB4A4
BD493D10
BD93E670
BCE3FC54
BE17E3AA
3D06E936
BD670570
BD195894
BD8F059A
BE191000
BE074383
3DF830E9
BE08B100
BE2506E7
BDDBDE88
BE0C36BD
3D5A7B7C
BE19F446
3D181F2E
3D0BAEE5
BD74877C
3CA75E84
BD23370A
3DB89B8E
BD81F6D0
BD635EAD
3E27E70C
3E075AAD
BCEDC65C
3D2B6B13
3C5249DA
3B2C18A2
3D184CEE
3E0963D2
BBFE08DA
3E04D04B
BCCAD749
BD1435CF
3DB4BC69
3DA9AAB2
BB4C50A6
BE1920BD
3E3959B5
3DD7474E
3D9E2C71
3A53F992
3CE47C8C
BD9C218F
3CCD37C1
3D8A5E64
BD9709D3
3DCFEC08
BE16CB9F
BBE11051
BDBB782C
BD56FB3C
BE083546
BDAC0C91
BD0D91BC
BCA8E79B
BDAC551C
3D40B49B
3D856725
3B6A795B
3DBA77B2
BDB86B81
3D47367D
BDA7C3C6
3DCDB55E
BD6EEF37
BC81E3F0
3D3615A9
BD8D931F
35B28274
3E073117
3D957FE2
3DAF0BD0
3DAE5337
3C869230
BBF77C0D
3DFE344A
3D397798
BC49F13B
BAE33295
BD26F4C4
BCF62637
3D328390
3D34E49C
BD1547EB
3DA116C4
3E08E19E
BD5C9B0C
BB83DEDD
BC5DD4C7
3D613A1F
BD580FA4
BCEC2E9D
3E184CA8
BDDEAB2E
3A7852E2
3D5C5EE6
BD5758E2
BDBA76D5
BDB7A5E3
3DA73DF9
3DA20C25
BE0EBC59
BBC6AACA
BA91C48E
3DA0B4DD
BDB0FEAA
BBB2BFC6
BDDF2AA5
BDC0F9A6
3AF4A75C
3E19026A
BC1E3F30
3CCA1263
3D814971
BCA4FF99
3DF3BF39
BDAE4153
BC82C949
3D3D74FE
BE19DFC6
3E010EE4
BE13C299
3E0906B3
3D6DEF52
BDCB8F57
BDD23120
3CF50AEA
BD737D08
BD9A3D86
BDA88FAA
3D7B0E16
3C2D8143
3CFB2012
3DF7B99D
BD970B84
3D4ED2A9
BE19900F
3DEEE65E
3D47CEA1
3B79A8CE
3BDDE249
3CF316DE
BD9F176E
3CDF7850
BC7042A8
3D29B9E3
3DE75735
3DF2F82A
3D87D8C7
3E1BD90B
3DD58580
BDA45159
BD0D4909
BD3A1974
BC13087B
3CEC1D35
BD8A78EC
3DD2DE12
3DBCD5F3
BD636E2C
BD6ACB93
3E1BE42D
3D72BC78
3E0BCB3F
3DC20C2F
BD643ED4
3BF8F158
3CC69E65
BD106924
3A3C2408
3D5FDBEB
3DCFD3E7
3C29DB46
BD52ED1D
3D87EFF5
3DD33D11
3DB64A28
BDF4C290
3D2887B4
3DD1E44D
3D97FE83
3E1AB690
3D7AF25F
BD9A98B3
BC673E88
3CA1A9BE
3D807590
BB17CFC0
BD7F55C6
BE35B0A8
BD882DC8
3D0427D8
3C8E72DA
BD80CED0
BDAF190D
BC1024BB
BDA49F54
BC4249BC
3BCAE455
3D143869
BD842242
3CD88486
3D6EDBAE
3D5AF4B0
3D982560
3D03B483
3B5B5526
3D1E3C06
3D0F9122
BD8C103C
BD409247
3D37C1B8
3D23C86F
BB1DE127
BB8541B3
BDA32E56
BD5AD00D
3D39A61F
3CEF0856
BD536024
BDB7FF6B
3DD71EA0
BE21971B
BD387019
BDE982C0
3CEABC77
BCFF06E6
BD83E038
BE185EE0
BD01545E
BC9151B7
3C94644B
BCB6F5CB
3DCACFF2
3D67623A
BD972DA1
BCB53FFE
BD7863DA
BD99CA30
3E06643C
BDB43D49
3CEFE8D6
3E02DD6F
3D9D0318
BDD9ABA0
3CFCC5AE
BD6D32EC
3D878A70
BDC57C55
BCCC7707
BD17E7F1
BD71984E
BCE84B89
BCCCB88B
3DB96A94
BDD2236D
3D6005A7
BD8D5C58
BDA4EC05
3C4E90B2
BDDF490A
BCA2D7B6
BC1D12A0
BCBF351F
3D4E10F8
3D8C197E
BCBEFE53
BD5BFFF9
3E2471FB
BB2D5E1D
BDEC3AD4
3DC3ADC9
BCDF448E
BCC87E64
3DB03656
BD57C1E9
BB91D0F8
BDD6E402
3D823A33
BDB859CF
3DB22738
BD2D6B68
BBEFBCE7
BC264B79
BD05D7E6
3D4EFED4
BD9D2A8E
BD92A9E5
3D453C17
BDC330BA
BD157906
BE1E9C2D
BDCD20AE
3B118AAC
3CACE31D
3DC5C9A3
BCBCAE31
3E20E666
3D9C439C
3D8EB110
3D81D917
3DBC2AC1
3DF7BF17
3DA3AACA
BDB6B8C3
BC0DFF9D
3DD22072
3D6956C6
BCF84CEE
BDB3429F
BDC67444
BCFA450B
3DBE6B1A
3DD8BC46
BC38CA16
BDA71B8B
3DB99A3B
3D54101D
BD11ED96
3DF3034C
BD3C3A46
BE13CFB9
BB6B9C46
BABBB8FE
BCCD2817
3DFBB829
3D454732
3C92545B
BD9A5CFB
BD120B5B
3CE06114
BDC11CBA
BC275D72
3C4687E4
3DC28200
3DFDE248
3D066E92
BD2C031B
3DB647CD
3DFD823A
3DF466BF
BDC59DFB
3DF5C18A
3DC1CE46
3D8E5B23
3DC3B2CD
3D045933
3D37CB8C
3DF07CAC
39DAE696
3D9E8822
3DD66011
3D0892DC
3C884975
BDE85938
BDC308B1
BDD66309
3C2F9D92
BD873664
3C8F2D3F
BC30BB29
BC93CBC5
BD9C459A
3DAD8E24
BD7279D5
3CC35819
BD04AC3F
3CE97FA6
3D6E0BE2
BDBB3D23
BD2997F7
3D29BDFA
BD4C7AB5
BDBC4D46
3D679502
BDE3645D
BD5D9BD5
BCA6B37E
BBB98979
3CEEDAB9
3D7F561C
BD541F4F
3E019EC0
BA953257
3D53EAE9
3DDD9CC0
BDDC14C6
3D559261
BD253E8B
BC13AD5C
3DFBCD6B
BDA6A09D
BCFF1E3E
3D366590
BDC2F04D
BD4D6A2E
3D8552EB
3C1C286A
BD2953C1
3D1D1E2E
3D2B8486
3DDB2D53
3D78E143
3D00AA85
BE0F4B42
BD89ECD2
BDF099D3
BD562B15
BE1830E2
3E09B446
BD3A0252
BD9275E7
3D85996F
3DDC1269
3DBE6BE4
BDA634CD
3CF134E6
BD09E55F
3B79DA4C
BD07E45B
BDB2EB80
3DEBD88B
3BD37B93
3DCB3E86
BDC86F23
3DA3B158
3CC99C71
3DC4D195
3D8728FC
3D2E6C29
BD946023
3D44A902
3E1DC3F3
BC344C78
3E0D092F
3DDBDA27
3C7008F2
BCF79C29
3E0077C1
BDCAB849
3D9110A9
BD8996BA
3D3F77F8
BDABE591
3D6E5048
BD1934B5
3D425337
3D6CB3C3
3D60EECB
3D07EB64
3C07DA95
3D35E7B6
BAD03E46
BDC54625
BDE9E741
BE17C708
3C890C89
3CA88403
BDDD353A
BD467141
3D9ED721
BD858CAC
3D989B30
BDDAA8A8
399C1097
3CD086EC
3D2CF493
BCDB6C3D
BDD82A8D
BBF48FB4
BD361FC2
BD3088F7
BD595B56
BE11A9F9
3DA9F60E
3E021C12
3D87D175
BD95D43A
BDD26AE9
B9B4E67C
3DE1DA30
BD9B18F2
3DBB9475
BD8C9AB6
3CDA21DA
3CE0D9AF
BB58F3F8
BD9E12CD
BDBDD616
BDDD6FF1
BDD63131
3DB52569
3D039D03
BCFF4B2A
3DC43D45
3DC94D4A
BD06A60C
BD1C0923
BD93719C
3DCA0BA1
3D225C41
3E051E28
BDB89A08
3DD44F4E
3CC38576
3E03ED1D
3DEF8EA7
BDAB34A2
3DB0079B
BCC8BED6
3CAB257D
3BBC9BD2
BD7D6F52
BE023E31
3CAA2BFE
BD9BA551
3DA2F7D8
3D3F0178
BD2219E1
3DFBCE17
BC6598EC
3D41AEDC
3D5A0BA7
3E024126
3D973BD9
BDC1F907
BD416D38
BC1AF7E9
BD8CB3E5
BB4DC7F4
BD9B6B72
3D15C7C0
BDD101E2
3DA776A8
3D0A60EA
BDEA2A8F
BDAEFB33
3D91885D
BE01F2B4
BD87BB37
3D7D3BAD
BCE18C4C
3DA856F4
3DA0B0BB
BD5E6F04
3DB259DE
BDBC3823
BE31B805
BDB5FFA4
3D28DAF0
BC715B4D
3DE6212C
BDDE3405
3DB041C0
3DBCC258
3D5BED6C
BDD7B3EC
3DA4AEAD
BDF75BE5
3D508498
BC12CD82
3DA83329
3D478B07
3D9B5149
BDCC23E8
BD99E90E
3D6B20EB
BD1124B6
BB88C521
BC76C4AD
BDEB6FA2
BBCF896B
3DAF7209
BD17D940
3DC2FB68
3DB095A0
3B65D9B9
BDA5A043
3DD0B27A
BD527BCB
3DAA2459
3C89EA19
BDB01A58
BDB0640E
3DBFB7CA
BDEFD995
BDEE7486
3D247944
BCE1B170
3D792E07
3D1D449A
3C9BD86E
3D8B8637
BE01214C
BDB0CB58
BDB9A205
3DF99DE1
BDC0AFDD
3DE402B5
BD4CEE20
3D9909C0
BD5B5053
3D7B5A44
3D1F2440
3D58F8AD
BCDF9A7A
3DFA60E4
BD019849
3D6896E8
3DA8F9C4
3B5DD02A
BD7F8879
3D4F5F59
BD3D2E94
3B8C2121
3CD2FF26
3DED9B07
3E06253A
3C1A8D1F
BDB01474
BD4931CA
3E10D4A3
3CE7B9EE
BD0738D7
BD484A2C
3D88E248
3E157831
BC9860BA
3E118C07
BC1D0722
3D962714
3B33F713
BD8AE3D8
3D9916D8
BD8CAF4C
3DBEDA04
3DBEF63E
BD809C8B
BE10018C
BD29801C
3E089F1D
3C28F252
BD943CAE
3DA2D61C
3D70824C
BE24A816
BDC2AD4D
BD468515
3D3ABCCD
3D791BD8
3D479A1B
3D7D15D5
BC87E11B
BDC37E2F
BD8022F0
BDCEFE9C
BDC34A3A
BDAA3FE5
3DC2BDA4
3D197989
3D6684D7
3BA0F07B
3D116A3E
BD4131DC
BD7011AB
BDD3FA36
BD969A03
3C5B1A42
BCE56413
3D955113
3DF7197C
3D36F78E
3D7DEF1C
BB8ABE1F
3D817F4F
BDB22A9C
BDCE78F4
BC8AEF68
BDAEA077
3D9321F3
BD3A0565
BC9D257A
3BFBBFD4
3D8C84F6
BCB32B8C
BDB22E0B
3D192EDB
3DDFC6E4
3DC57F80
BBFD67F5
3E0B58C2
3D96949C
BE08EEDA
3DABEB2C
3DFB859D
BDC39661
BE069357
BDA05A91
3CB59274
3C4358A5
3D193E68
3BA3EE9D
3DC93DAD
BDF8701D
BD6BF140
BC9544CB
BE0291C0
BDAB58F0
3C6DFEAB
BD909800
3CC456ED
BDFEF9F1
BDBAD25C
BCCEB189
3DA9F38F
3DE62CDD
3DF0F779
3D641239
BDF5BC7E
3D3D768E
BC570535
BDF4E009
3C747D6B
3BE49210
3D96C517
BD172ABA
3DE9A728
BD04167D
BD9CF383
BDECB5FD
BD9C2DC2
BD36621C
BA8A763B
BD3B831B
BDDD36EE
3D9E848C
3D85FEC8
BDEB38DD
BDFF228C
BDA30D23
BDBE4B3D
3DAC26DE
BBA3CED2
BD8FFAD9
3D62316E
BD9CC237
3D01DCF7
BDB49183
BCD8B11C
3D55D88A
BD787DCE
3D2E7625
3C2760ED
3DBAA80E
3D6BC78C
BD57494D
BD925146
BB21049D
3D306D25
3D27E656
3DF309D7
3DC8D5C3
BCBF8EF1
3DC09792
BD744B39
3DA93345
BDAE4416
BD884427
3CC30B38
BC082614
BD91BC8A
3DCFD149
BE201133
3DB0FC7D
3CFB37BF
BD3890C3
3CB241B1
3D2C3AB9
3D83F9E8
3D530825
BDADBAB3
BDE0DB43
3BC3FA15
BD4EAD22
BDE33F94
3C1FED3B
3E11FC26
3DCC1EFE
3DCB1846
3DE6FBF5
3E0F4AE3
3D42C8B2
3D61FC5F
BD8785BE
3D8AE28C
3D78F547
3DF91DF6
3D7BA426
3D2758CF
BD5F1F50
BD9012CA
BD63C66E
3D52DA15
3D76FB5F
3DC74E95
BDB4C33D
3DC3CFC1
3D723C02
BD253102
BD737652
3CD15B5D
BD0BC706
3D6E71D3
BD937170
3E0671B9
BCFA595D
3D18815E
BC86A2CC
BCE0EC74
3DCD0BD3
3CD4305E
3D6EC906
BDAD4CF8
3D7435E2
3AC27C67
3D91EB3D
BDB38834
BD8C05EB
3D8ABAA2
BD15A2DF
BD41DABB
3D318503
BDB6A656
3B813B13
3DC2F692
BE1BA2F2
3D3C33B5
BC0ED9C2
BC9675B3
3CE26C4C
BDEA295B
3C862C95
BBCD71B8
BE2A5943
BD29E381
3C98FC7B
3E1F9ECB
3DC5A212
3A1D0AE8
3DA15CEE
3E27BD70
3DD3FC69
3CFDCC6F
3BB91926
3E16B2A2
BE12D5BB
3D9B165C
BD540729
BCB586E0
BD8D7EA9
BDB8B33E
BE0A4A39
3C2B48CE
3E0109E7
BDD0E2FE
BDCD0AD5
3D475D8D
3E04F6F8
BC4B57E2
3DD23C3B
3D7F95E5
BD37C155
BD85B7CD
BD922908
3C221264
3CD85D09
3D952E61
3C8177FA
BD4C4048
BD364E30
BD2ED7C4
BDF39677
3CEEA6E7
BDDB4A60
BC928761
BD39C376
BDA576DC
BE06BAB6
BDBB526F
3C2CD76F
BDE4F26A
3DAAC10F
3D884575
3D80A7A5
3D394612
3DC300A5
3D328698
3D897E02
3B4C4CCA
BD6135A5
BAFF8C68
BDB139FA
3D741703
3D129AF5
BDD44CC5
BD962B00
3DB4B0B5
BDC0C955
3D753C07
3D966435
BC97EA88
3D8B55A0
BDB3BBB1
BD8A6F57
3C9A84F1
3B870C79
BDB0A4C9
3DE80D7F
3DD400A4
BDC5B3F9
3DB98CF0
BC6A4D26
3D3C5F47
3DA6AA59
BB5A178E
3DB7D15F
BDC76C62
BCF53DBF
3C58756D
BDCC540E
BD437E67
3CEA28C3
3D6E60DC
BC2729D0
BDB670C3
3B12BD5C
BD8432CA
3D22611B
BD7CD289
BDE01C46
BDE38A0C
3E19B101
3E0DEB13
BDCBBEE8
BDC4B1A2
3D0263CB
BCC79B95
3D95A543
BD6F7BA1
BE08AB2F
3AF6ECDC
3D109747
BDFE2A06
BC536DE6
BC2F3420
BDA3C2E6
BDFA6525
3D8FC1B2
BE14ECD4
3D0115E2
3DCE9436
BD1A22D4
BDE4876A
3DEFAF83
BD235865
3C9FF6CB
3D06E364
BCC33793
BDD42003
BDE0CE90
3E04F15E
BD743059
3D92BA67
BDAE9F19
BCFD3210
3D03AA4C
3E21423F
3D708B76
BD352EB6
BC2E6BF9
BC8FF51B
3E1572A1
3A9B4C4C
3D25A200
BD78A583
3C086A52
BDA74B90
3E18D0ED
3DF2CC89
3E043BF4
3BB38DA1
3E170A1F
3D1E51D0
BDA37EAA
BC0FD2DC
3CC18602
3DDF91EE
BD801CA3
BD76AF4C
3D5DBD98
3D89FD14
3D764CC0
3CEF89D6
BD881AF5
3D223BD2
3E04955B
3DE5E9DA
BDB6C8DE
3D891783
3BA7B6D3
BCF41FCD
BE18E1A6
3E0B8797
BDF50A9C
3C4792A6
BC8F1ACB
BE1BCA05
BC1CF4A3
BD530724
3B8BB8C6
BD3CC4D5
3CDE1936
3D986A2F
BD993957
BE146C00
BDFC9B61
3D9D8402
BADEB85D
BE0BB2C1
3DCA0942
3CC2C3EA
3D83A673
BE081D35
3D65A7C8
3D8AB81C
BDC56635
3E22F6D9
BCEAD607
BC54B996
3D48F262
BDA509A3
BD8C9CED
3D143905
3DEAE6AF
BD6895BE
BDC0A45F
BD4EC192
BD9AABB3
BDECD841
3CFCD223
3DE6DD09
BDB2D99D
BE077C36
3D41A84C
BE19F07A
BDB3D73B
BB803A8D
3CBC912B
3D179CBA
BBAD9EDF
BD13D6A7
3C40C2F4
3A90958F
BDC3E5D5
3D9ACD30
3DB4B7EA
3DF2758E
3DEE4CFA
3D8B3802
BD86EE9B
BD707E5D
3DCF7F8E
BDFA90C9
3D136B5A
BE10B5E4
3D47E00E
3D9C13F2
BE02DF57
3C887C00
BDFDB6C7
BDDE4DC4
BD39614B
3DA72816
3DFDD0CA
3DD0AD36
BCC138C5
3DD145DB
BD485F0F
BD41DDEE
BD500A2F
3E16EA9F
BCF11089
3D92CBC7
3E221739
BCD693EB
BDF8E549
3E077E0A
BDD2DAC5
3D923FBA
3DE5B62C
BC1A83CF
BD57BED1
3C3202FD
BD73AF98
BCA89454
BDE5B257
3D7198C7
BCDAAA00
BC9F3D1D
3DC09E48
BD47B5BC
3D7CE343
BE096C32
BD583FB7
3D84666F
3E0CB247
BE08B25D
3CD32BFC
3D8B0B82
BDD2DEE6
BDAAFC2D
3D886D0B
3D6E3F3B
BDAF82A6
BDF4D522
3D7D1B61
BD80B12E
BD29C5E4
BBF6D3C7
BC399989
3E24DCAA
3DC70293
3DA764B3
3CBAED5C
3CE9CF92
BC8D9752
3DACB8F1
3D6ACC8D
BE120CE0
BC4E0490
BD09AF3B
3C9FF665
BDF74C07
3D0B44D8
3DCD14C4
3DBBEB8A
BCD44FB8
3DAC728E
BE0008CE
3D0C2611
3D22B7D6
BD291F0B
BDC7F7EA
3E07999C
BD2129E4
3D3D4F29
3D61E248
3DEDA060
3D83E766
3DEFB1C9
BD03F4FF
3D8443C6
3E0F8992
3DB81F10
3C0E672C
3D78F22D
BDCE635B
BD88702B
BD7911D7
BB654EA4
BD9A779D
3D27454E
3B82DA10
3C5DAE26
3DBA4FDA
3D19959E
3D3804B9
BDA0E882
3DE205B7
3DC750CB
BDA5CE28
3D866C79
BDB8013B
3DBE42C5
BDC1B8A9
BDCE5DCC
BDE781CC
3D7377D4
BD87918B
BB3DBAE1
BD0CFB66
3B8EC47E
3DB2C777
BDBC8E61
3D0588B8
BDFC0123
3E175858
3D0B718E
3DDC4FB0
3D89AEC0
3CE8C1BB
3D7B7714
BD6DAB9F
BE00661A
BB7509D8
3D340065
3D1DB66F
3E003C51
BDAD8A37
3D705D80
3BEADA14
BE0E487B
BE08BB13
3E047B1A
3D59F003
3DCDE002
3DAB539F
BD95CCC2
3CB8FB7F
3E061EEC
BCED72BF
BD7761F9
BD854B5D
3BA18E9B
BDDAE022
BE17E818
3DC213BC
BCF52C8D
BD10B133
BB5530C9
BD811BF2
BD94D3D1
3D68FC48
3DB348CA
3D50DDB6
3D9805C3
BDEA3AD2
3CDBEE33
BDC18FB9
BD885C1E
3D210612
3D1EF00B
BA2EDDA4
BD5BE254
BDE417E4
3DF63795
BCB30236
BC21C07A
BDEE1035
BD173DCA
3D0E9699
BE02F73F
3D9A8E46
BD469A94
BD585DC5
BDDC6FC3
BCDC4749
3D2EDDE7
BBF95A8A
3D8BF57C
BD660FD2
BDCB59B7
3DE2EB3B
BD01A425
BC8B703B
3E22142D
3D490344
3D396170
3CA87F91
3E1279E5
3C3D5FD2
3D2AD762
3D6A99AF
3D5A63C4
BA937467
3DEF3763
BE0A48E9
3D469F97
3CB80758
3E2FCD66
3D95746D
BD155829
3D016B5A
BE0A33E0
3DB22F46
3D7B3E42
3D9CC155
3CB22E3B
3CD78B92
3DA0779A
BD2C4434
3DF7C0EC
BCB53B00
BD4EDD7B
BDBC7ADD
3DA4C016
BE22234A
3CBC95DD
3DD3B28A
3BA5196A
BD6EA659
3C182FC2
3C9C50C9
BD060621
3D4C5BE4
BD497971
BDA2A19E
3DDD6CA0
3D8A2621
BD1BB9C5
BD6B2AC6
3E0FC240
BC87029E
BCADF8FD
BD8726B0
BE06C2B8
3C805C61
BDDD059E
3D4C5421
3DF1C6A7
BDE55691
3CAD1FE4
BC8CEF3C
BD809460
BE1108A2
3D427ED8
BDF5FF4C
3E0B8F09
3CB74567
3DEEF465
BE1F3028
3E255D12
BD9EE241
BDC76FCD
BD5DCF84
3BA3E05A
3D43EE4C
3E21893E
3E1E4CAC
BD3A37DA
BD08E9EF
3E23E42E
BD0B47DA
BC073F6F
BC1EE096
3D2A5724
3B98C80D
3D842EEE
3D087B0E
3C20F808
3B5965B7
3E350A8F
BD38AF06
BC2824C2
3E1FDF0C
3DA7844B
3D6C5437
3E2BC95C
3DCA9581
3E209BD7
3E25AA4F
BD7AEBBF
3E0BD2C0
BD110D94
3E1B8D4E
BCFF3B85
3E0C9330
3D2CA8A8
BD108267
BDD3870D
3D9B6804
BD3F7D99
3E0C56E6
BC5021AB
3DE53180
3C92E057
BD8CABB4
3E1C8F9A
BDB64524
BC42BFB8
BD98003A
BE09F994
3DB0A617
BD57B808
BDBE845A
BA58D71C
BDEE2481
BDB93728
BD3C7E71
3C67513D
BD9F5099
BD8572A1
BBA83640
BD51E586
BD8490E8
BB9B714B
BD4C7AAD
3D8B3EFC
3E124074
3C6689A2
BDA6DEAF
3D4C5970
3D1B4DEF
3D82E7C4
BDA04941
BD8DC611
3BFC8288
3DA6FC1A
BD6499DB
BC7AE5DA
3CB22369
3DEB53A2
3CB95399
3D875363
BDE9F249
BD9ED023
BDA1F9E1
BDE4AD12
3D964B18
3E02F23D
BC1E4550
BDB35C85
BD3A7F40
BC085544
3DC24892
3DA42E9E
3D9B045E
BC5EC5C9
BD18CB05
3E1D0B7B
3D64D956
3D259454
3D1DB2EC
BDAFF3FA
BD07F09D
BD678DFC
3DD8E638
BD2EB1CC
3C37EB74
BDAB18B2
3D713415
3CB94896
3D094787
BDD04845
BDCC473B
BCFEC2B3
3D907B8C
BDCE445D
3E009103
3D5B2CB2
3C828C92
3DEB5B4C
3D931F4A
BDB38461
BDE2339C
3BC40492
3DF6E5F8
BD18B3F9
3B8F2B82
3D9FEBDB
3D111442
BDEE9E91
3D1E63B0
BD5CCB8B
3DDA1533
3DB5AF64
BD867CD2
3C305B12
3C8B6EB4
3C8705A8
BDEDDE29
3CA3FD15
BCFE5CE2
BC424FBB
BD7C5C8A
3E190147
3D9975A6
3C2B7209
3E24AF87
3C86CA0F
BD3321A6
BDE87B10
3DB788CE
3DC42A58
3D8910EA
BDDACBC7
3DF643D5
BD6AC85E
3D201ECF
BAF40042
3C35FB7A
3DBD8AD9
BE05418A
3CD928D1
BA3159D5
3DAC90AE
BC9F0C2F
3E0880BF
3D289916
BDB9F68E
3E0B44C3
BE115A94
3DFC39AF
3DBCA4D8
3C1750FF
BE176655
BDA00103
3D9C5604
BDC11F3A
BD6BAF1B
3DD10364
3DB81B8E
BDC26006
BDC1AC7D
3D435EC5
3DCEF7E4
BDB853FE
BDE5C57C
3C4B4B42
BDAC8E18
BDDFC1CC
BC8338DF
3D80AFBF
BD69AAB9
3DE12CAE
3D5AA901
3E1DD918
BD0C2466
3DE38E94
BC07044B
3D71C41D
3DDEE907
BD18C820
BD9F767B
3E198F50
3E1CDA0D
3CE2E726
3E11941B
BCF29A01
3DCCB502
3BA70E8D
3E0C24A6
3E0F103D
BDB27AB7
3DEFE319
BDA6CD9E
BD4D421B
3DDEE522
3DEDE134
3D1FC9EA
BDB74651
BD441233
BE218CBB
3DC62F87
BD24F1CD
3C9D846B
3E1534D6
3DA7EC8A
BD6A52EA
BD3F22A0
3D78A81D
3D8B3628
BE0948BC
3D8CE2E3
3E2867A2
BCE9B82A
BC690959
3DDD0183
3DA0577C
BA1FBD75
3DFF6214
BE074BC1
BDA029DF
3D6852C5
BDAC60D1
3D019D7C
3D61D931
3C89C0F9
BD617C6C
3D8C3811
BD3622AC
3D1AAC8C
3D751129
3DB01AA0
BD352223
BD4C552B
3D83CBF8
3D5E4A08
BC48DB9C
BD73ACD0
3B9F2331
3D22654D
3E047AAE
3D65476A
BCCEF998
3D51F5FF
BDDA250A
BD5CC6F0
BD1FCF86
3E1AD624
BD384FEB
BD1B27A1
3D8790BE
3CD7CC3A
BAD69C59
3D1FF09B
BDD8A0C9
3E06EDFA
BDAB15DE
BD3C1872
3D8BA443
BE2077BB
BE1171C4
BDAA8FEE
BCCBE3B4
3D5BEF07
BD28CCB3
3DD0489E
3DE6BEE6
3DBC0D79
BC8A9377
3DA556E0
BCC52945
3D464AA2
3DFC4E1C
3D4A7CBE
B7C06F46
3DA56FE7
3DFA03AE
3CAAA657
3DB7A9AA
3D502E2B
3DB283CD
BB91FEF1
BD87EAD3
BD57D881
BD20F13F
3DCD7E81
3A9F71A0
3D88B189
3D86889D
BCAE0A3A
3DAFBC5D
3CEA6A17
3D69E381
3D2DAF10
3DCA3D6D
BBBE62D2
BD84EAFC
3D870A6E
3D7602F1
3D5B5C7A
BD01210D
BDB6DE4B
BCB6D23F
BCA8AD69
BDD21D9E
3C12E7FA
3D1D2EEA
BBDEF605
3C83BBB1
BD6B3248
3DA5BDEE
3D3A2B9D
3D47CD74
3DA551FC
3BB6C7BD
BD4843B6
3DA10526
3CD43E91
3D9A2A0F
3D5C0D82
3D38CA5C
BD822F8B
3E1159A4
3DDB6F85
BC717E68
BDC50DF0
3AD80565
BBB8348F
3B3D1E2E
3D969560
BD265673
BDB9CB0A
BCE1C1F2
3D998236
3DFD94B3
3DF0825B
BE13557B
BD9F6B31
BCE97412
BDB38699
BDB5BE78
3CDCA1A7
3D902872
BDA6AF05
BB9273E0
3C99A111
BDE5A74F
BDEBE21C
BDD4020D
3C37DAB8
BDCE73B4
BDC4480A
BCBABC9A
BC84C2A2
BCF32170
BD7DD878
BD108A01
BC52D4FA
BD5B90BA
BD870E7B
3DD58BFD
BD5252B0
BDCACC42
3DAB9E36
3D5A3688
BD1C4DDF
3BB70E34
3E0EBBC2
3C5D1C05
3D98334F
3DE2495B
3D42B6D7
3DFD9BD3
BD3002E8
3DAA7688
3E02BF06
3DA22EF2
3E09810B
BC7096EC
BDBB38A2
3DE92DC4
3D656FA1
3E077E26
BDACF2BB
BDF59A0B
3D34F99A
BDB4160D
3CA337F9
3CFB5195
BD15930A
3CA7D27D
BD986130
3D3D1788
BD9D8EEA
3D18C701
BCC187F5
3C842224
3D1CD985
BDB46EA7
3E021B6C
3DA2B516
BE0C8FCD
3E105C30
BD0EDB73
BC3DE68B
3BD494D8
3D58CCBB
3DB5FAD8
BDCC64C7
3B90851E
3DE29FD7
3D9F7215
BDE9F0A8
3E2CC512
3E1CDD2D
3DD4E69C
BD626850
3DE75C5B
BB6BF80B
3DD4C8FA
BC6E929A
3DA13A25
3CE69C57
BD8D9E62
BDC3EFBB
3D4089F3
BD572216
3D379F41
3C208E40
3D9F30A8
3CED5D86
BD939BDD
3D98E176
3D797C58
BD96D0FC
BD9BC1D1
3DA1B622
3C93A620
BD526497
3DAB6B9A
BDE876B8
3C315DA6
3E1973E1
3C79DD51
BC065C10
3C1D5571
3C0EB75E
3D67CB23
BD5F9A8D
3BF08940
3C9F95CD
3DA44DAD
3D1A2D91
3DE78AF9
3DB27CF0
3D08E310
3D8D59E1
3DE448DC
BDA1D7D0
BD15D5E8
3DAD75DF
BC09E0A9
3DF76D26
BD99EBDA
3DF18646
3D04EB77
BD7D6F92
BD8A3EC2
BD74CBF5
BD56CFF3
BDAE2758
BDAA8F6B
3CB4B9C6
BCCD1D6F
3E041DF5
3DD64A8B
BBF41E75
3D1613FE
BD831BD6
3E0D17D3
BD4A8524
BDB2BE66
3DE70056
3D994A63
BDB4003A
3DFE047D
3DB88767
3C964998
3D75F994
3DAC6985
3DFBFE47
3B5578C3
BCCBEB8B
3DA1A004
3DB7511E
BA289865
BB9F437D
3D98CBD2
BDC35D0F
BE05670D
3DB3359F
BDC155D2
3D9AB44A
BC78A289
BC0FA1A9
BD825F86
3E16588E
3E0295D9
BDDD754A
BCD3C351
BD41F6D6
BB11021B
3D58673D
3D504629
3C8DBEF5
BD94D7E1
3D96F9B3
BDCE51F7
3D86A177
3C928B5D
3D96C5A4
BE1938BF
3DAE2772
3DC1C3A6
3D3A9392
BE061E1C
3CE2786B
3DBB5853
BC8BB21B
3C7B5C57
3D7BC2E2
BD283B73
BE1C4F62
BDB8F45B
3E1183B3
BD27E71A
BE16C5DD
BD5DC27E
3DAC244D
3DBABF42
BCEDD449
BCC323E1
3CFC6795
3E009EC6
3D7C5DFF
BCB4AF65
3E06C7A3
3D935786
3D2401DD
3D406D10
BD15BF77
BD940EE7
BD640BF6
3DBAADE4
3E24C360
3D9E1CFC
3E0DB8D0
3CE76783
3DC20644
3D527DA9
3DEA67CC
BDA0E78F
3E1CD57D
BCB2918D
BCE33B39
3CBB85AD
BD81678F
BC9E3413
3BD37924
BDE783B8
3D838A25
3DA803EF
3DB5EC01
BDA0D6E9
3D88584E
BCE0BBCD
3E12C9C7
3DBAF229
3D3F5471
BD23D23D
BD773BB4
BD257C91
3D00A4A3
BC69466B
BD96FBDD
3D00A5CA
BD9A126B
BD97C89D
BE12F97E
BDF59315
BDFFE3D4
BDDFE344
BCB97999
BE22F220
3D5F6513
3DC3FF9D
BE101D9B
3DF573E8
BCDC1A68
3D69C89E
3D8C9010
3DEBEB0F
3DA2E7C0
3D0FB8D5
BC6C3C5F
3DA43524
3D76853D
BDE1DAC4
3D83A89B
3D745258
3DA1D4A5
3E1AB975
BDF31907
BD755519
BD159815
3DFDBB6F
3CF443AF
BE0643BA
3D7A4F01
3A9D70EA
3D0026C7
BD5D3FE4
BCB55725
3D6CC7F7
3AA669B7
BCCF3C28
B8D5FE4F
BE0829D1
BE138054
BD3EF2DA
BD9CE855
BDF557F5
3C1674CC
BC40117E
3E161566
BD6E4AE1
3DA7DC05
3D7E69A5
3C9BC6A0
BCF02298
3D677F60
BD0BFE2B
3DE2CCF0
3C044509
BDAE5989
3DD9A944
3C644727
3DA7676B
3DD2D7F4
3C419FF3
3DDA32C7
3DDC3E8C
BD8E8ACE
3DFC75BD
3D03EFCF
BCF33445
3DD3775C
BDB43124
3D43FF89
3D9009AC
BD88F3A6
BC964F17
BD117F9F
3E105643
BD11AB71
BCFA7415
3D61724B
3D1C08D8
BC9129A3
3D402087
BD99A264
3D37B6E9
3E0834D2
3D5E8F3A
3D8B8DBC
3D62A389
3D873718
BDD3293A
BA19DA31
3D8F47AA
BDBBC717
BD795D7F
3BDCC0F6
3BD3A833
3C0C1DA5
BD37D65E
3C05FB2C
3D0FE6D0
BCD4D99C
BD2FEC9A
BD918EF8
3DFD882D
3D88305E
BD4D066E
3D7352A6
BDADBEDD
BDB5F228
3D46327C
3D9669A0
3D87A4A5
3E0600A0
BDA51024
3C50A824
3C95CFD0
BD06D79D
BE030B34
BDF2713C
3E0D2AAE
BD87FB9F
3C288443
3C3949B8
3E07E62F
BD225306
BC81D4EC
BD6F10A7
3DB3600C
BE00B8D2
BDBBF8E9
BDCE75FE
BA6F7747
3C2F16D9
3D22AE81
BCC38CCD
3DA929A1
3D7A3C54
3D016E2A
BD83C1DF
3BEC819E
3DC8B8B1
3DC8530F
3D72FAFA
BDF916FC
3D94464E
BDDBBCBF
BE1649B4
3DBDA8C4
BD345827
3CEF6E83
BDE46D22
3D845963
BD552813
3D92935F
BD45178F
3DC5C766
3DB35B9F
BD4997A1
BB918894
BDC7AA9F
BDCA0903
BB241BFF
BDA63201
BDDE0074
BDA3944A
BDB2D366
3DEAD5BB
BD238CF3
BD6AE257
BCD41E5B
3DCDBE52
BD1B193B
BD4E6E98
3D9CF5E6
3E0CB186
3E07E048
BC73EDA3
BCDEB146
3DC24EB6
BD6DC8FC
BDC3FFCE
3B1E3C16
3D6BC8A6
BD5897B1
BCA59B3A
3C5E4957
3DF5122E
3D786C08
3E0EA5F2
3E289246
3D5A73DA
3DBEDF23
3C2BFEAC
BDDD7B73
3D664E36
BDB39ED9
BDDA3A3D
BD91AAED
3DC640D8
BC823412
BD3517C5
3D0630CC
BDD2ADF1
BB8B720F
BD8378D1
BCCEC97C
3D09B441
3D48F52F
BCDFBD14
3D882454
BDBD4378
BDAC4521
3D51EEDD
3DA4D9CB
BCAF5741
3DC2228A
3D4ED2A1
BD647D9B
3DC70AF1
3DC4F3D9
BC1594E8
3D47F949
3C44AF11
BB9C7267
3DA71027
BD8973AE
3D80D829
3D9CDAF7
3DAD2748
3C10F1AA
BC426FB1
BC82174C
3D9925AD
3D760911
BD8A4CEB
3D5A9D17
BDA07159
BE12EDE2
3C6B187D
BE02481E
BD82259C
BD77EE3E
3CF9DE02
BDB820D9
BD950C40
BDD45EF9
3CFC180F
3DA4D381
3D944F60
3C59885D
3CC7B002
3D94E31C
3D94E269
3DA87AB6
BC633524
BCDD7BE7
3DACD4F9
BB8C0A65
3DC501E0
BDE60022
3DC90CD7
BB2006F1
3CA5710E
BB8381EB
BCB59E83
3D0E2364
BDE2515A
3B8C79A0
BDE735DE
BD69DC45
3D5B43FE
BD91F547
BD8B9BE9
BD8F1809
3D1EA53F
BDA89EBD
3B3D9E06
BBBED2FA
BCD4889E
BDBAF14F
BDAA29A5
BD94BE86
BC4B49F6
3DBAD176
BDD44794
3B4125A5
3D2E7D1E
BDFB4F36
BD1C81B1
3D94A579
3B8CA469
3DDA9C5E
3CB21A9A
BBDA8BFD
BC86F979
BC051B28
BBF5AB12
3DD8F57F
3D60113A
BDE2728C
BDB32984
BDB2409D
3CAC86D1
BDF88CC1
BD893BBE
BD7297D0
BDD3E117
BDB1BF53
BD872C46
BD42F129
BAA302FA
3D0A04AE
3D7C20A5
BE023991
BD8F041A
3D8423EF
3BA21DB7
3D06C0C7
3D9D1D59
3DC0D2F1
3D83D369
3D5CE7CA
3E0D5778
3C93D4D9
3E0698BF
3CA700BB
BD3A1ADC
BD6C238F
BBB8DD57
BD965905
BD3AF26F
3DBCDC2D
3BBE21E4
3D390014
BDC27CB1
BB28B038
3DDFD96B
3CA7802C
BBD080E1
3E16792F
3CAC60FC
BD32583A
BD7DFD41
3D4343CD
BC59DBD4
BD647D35
3D682276
3CC6C125
BD3DFA97
BD20C5EB
3D739018
3D8413ED
3DF4E7D2
BE0D8017
BE2408C6
3CEB0D6F
3E230041
BCC07ACF
BD1A8AEE
3C95BDC7
3E15A83E
BD966250
3D73BF68
3D1D17AB
BDD7C725
BDA3DD68
BC573383
BD0373E3
3C753618
BDF581D2
BDBB878C
3DCE9051
3DA2B58D
BDBE24BC
3DF511F5
3C01EE17
3D4E202C
3CA26266
3D8B92E9
3DDB3E95
3C9D8892
3DA6DF56
3DE39437
3D2BD8C7
BD89D660
3E18473E
3DBC5FDE
BDA4EAA4
3E016123
BCBBBD25
3DEF9CF9
3C7A6932
BDEE5D5B
BBAA7AFE
3D8DF49C
BD5D1B14
3D6E17CB
3DD5E5F4
3DB7077A
BDC2AB57
BDDA9D40
3CD9392C
BDA6FAB9
3D855A3D
BD491136
BDEA64FB
3D16E5F8
BDB567BB
BE09589C
BD0AE475
BD54423A
BE0FD8B2
BDBBA501
3D0E2D65
BDBC4B74
3B7690EB
3D133B03
BDA4B77C
BDBF96F7
3DAD1257
3DDD6BAD
3D80DDD1
3DBF5D00
3D5586B2
3DF326A1
BDB6FD8F
BD999489
3C3273B0
3D140A16
3DA6FB57
BD9CDCF4
3DF30577
3D32443D
3D1FBE21
BD2216FC
BE151A21
3C5A230C
BDFA745D
3D8C0ED4
BD9436C8
BD50AD2F
BDF0C4BB
BD9DC1FD
BDAF16E1
BA9EDC4F
3DABDBE2
BD8125D8
BE2F4A9B
BE0E577A
BD2BFF7D
3D84E3FC
3DA97AC3
BD912205
3D9A075D
3D260D38
BD9E6EBF
3C92DDA3
3D60E9B5
BDF877D6
3CC50F49
3D8F9217
BD5575EB
3E3BE47A
3CA5C963
3D46F408
BC09199A
BD102087
3DDF40BC
BD86A6DA
BD3D98A5
3D08E5A5
BD19C76F
3DD284F3
3DEA255B
BD34D50F
BCD336B4
BE090E7E
BE2915FB
3DEDB600
BD813F6B
3C467CBC
BD868799
3BF13E9C
BC8A753F
3DA0FE2F
3B99F473
3DF4FDF1
BD4EC3B5
BC8D8234
3CFD1301
3D32DD2A
BDB2F00A
3E2CF505
BD19CDDA
3D8CA0D3
3DA2FE5F
3E040731
3DC84D46
3DB58665
BC596F32
BD15D17E
BD0541E6
3D99698A
3DD8FF9B
3C1D6495
BCF0DE75
3D108FB2
3D857026
3E13EBB1
3D3C8CFC
BD6E6DDA
3DF2D0CB
3DC629B1
BA04B485
3DC877F4
3E092BD6
BD56AF74
3CB0AE28
BC2AFC43
3E1CE5A0
BCFBB157
3D825554
3E0D114D
3DC45F12
3DE140E9
3DF079CD
3CB7FDFE
3D7832EF
3E41264F
3DA09E36
3D44C158
3DEFD65C
BE2688E4
BCE96CDB
BE2ADE22
3E2F003B
3DF329CF
BCC66250
BD6FFE3A
BD5F6AD7
3E214CD8
3DA12A3C
BDD2EAA3
BDAA79B0
3D12F5F1
BD886612
3E2B2138
3E34426A
3D1DEBA9
BD8AE9D2
3D8C7395
3D51249B
BE18B38A
BD63BD39
BE22740F
BDA77CB0
3A6210AC
3B476A37
3D1C7E30
BB48AB55
BDE3B666
3DD69444
3E0E8E87
3D94229E
BC7E1A37
BC878D18
3D2B008F
3DA08A8C
3CB20CC3
BDA224B7
BD88EBBE
BCFCC6F0
3CC57916
BCF22227
BD801686
BD0B51D3
BD436835
BE1BB55B
BDAACB8B
BD89AD44
3D64E139
3DAC3E54
3DD1E8CD
BC36E67C
BE21DB37
BD6A6D0E
3D43437C
3C9BBFFF
BE1F613C
BDBA7019
BC8F8960
3D9DAC48
BE1E57F7
3E0EBCEB
BDC89E2D
BCA6A55B
3CF635D7
3DDC2AD9
BDACD7F2
BD9935BA
BC48CB35
3DE4A57A
BD804F07
BC89AEF0
BD4FB4B9
3DB5CE3E
BBEBEF52
BC7E60AE
3D6244B4
3D95B1DA
BD4B24C7
BC4A61E3
BD86D5B2
3D1D5805
3DF96C35
3DB4F3E0
3C5DBE2C
3D47A50D
BDB3F213
3D720815
3D949976
BDDEC11D
BD6CE4B0
3DC76752
3D4A7806
BDCCE0D7
BDFD50AE
3952BB79
3D088517
3CB98B7C
3D0F185C
3D1B968C
3C25A291
3DCF7237
3B858957
3DBECB78
BD800166
BD6C19AC
3C9734AA
3D7635A7
BDD81522
BDBF785D
3DADBFEC
BDF48799
BD946037
BD4E0AE5
BE0E60DC
BDB22202
BD83B45E
3D62AB5B
BCB6E7BE
3D81CF74
BC7D04B8
BCE0D0F0
BDAAA639
BCA1959C
BD8E67A6
3D36C75D
3E1353AB
BD8C06C1
BD9070ED
3DE1DD7B
BD8D85B3
BDCED692
3D4D4538
3C163521
3C393E85
BD52C8AA
BDF9C7D1
3D75EC18
BD8DBA16
BD5A07C3
BE0458B6
BD871F55
3CB40F67
BD7125C2
BD7E207C
BDD53E67
3DE3AE74
3D240AC4
BCBD1371
BE06C43C
BCC3DB11
BD51E04D
3D79FCE9
BD2FEA61
3DC3F553
3C94A869
3E0BA31A
3C896EEF
3D375CB6
3E08EC7E
BD81FD42
3AEC81F4
3DF829B9
3D93D423
BC37AAE7
BCE2BF52
3D4F74F0
BC8D1E36
BDB3C63D
BDCDBF63
3E0E78CA
BD20369F
BDBDF590
BB96BC5A
BC799705
3C70C611
3DFF7CE8
3DEA065E
3E1E6B27
3DD46F4B
3DA8B1F8
3E1DB4A4
BD3E40F6
BD864227
BDD59D5D
3CBDE380
BDC361FA
3DC4FAC0
3CED5C14
3CE0F3CB
BCAB4AA1
3DB56F3B
BCB6A5BF
BD18B84E
BDD71263
BD0D84BB
BC932F42
3C4AB7B4
BD5219A8
3E09A6D6
3B031E2D
3D42CB8C
BD8450CD
3D775F7B
3C35D707
3DA32E39
3D003C0B
BDC4878B
3CB07AD2
3D26230A
3DA98472
BDBC0770
BCD963A9
3DAEBEA2
3D21ED5E
3DC757FA
BD8C4F56
3D958FD2
3DA66528
BD58E351
3D851F78
3E020E7C
BB91E07D
BCDF625B
BC9BDC4A
BD89FBD3
3DCA8D7D
BCE2F40B
3AFF098B
3DCFF254
BDB217F9
BC8FC66C
BE15409E
3C23ADA4
BC4131A4
3E0AF956
BE25061C
BC4B0969
3DC8D542
3D9FB3E5
BD97CAEA
BD8365B8
3DD04515
BC3E8AD5
BDE9866F
3D1C8C68
3DCB9778
3D8C1092
BD60D7E7
3DB74509
BDDF09BD
3DE469C4
3DA1FAF7
3E0065E4
BD88AFC6
BD980036
3E0E88C3
3E06AB3F
BDBA8588
BD504BE0
3B9833FE
3DA92B2A
3DF5C84A
BCCDA4B9
3E116BF2
BCA27D18
BD7E246B
BD129714
3E0D389C
3C1EE076
3D833FA2
3D14A7F3
3CF69CF0
BD5B2B6F
3D2BDDE2
3DDC8795
BC0E4283
BD9BA0D4
BCF484B2
3DC9AACC
3C91C6B2
3D205951
3D989E5C
BD761294
3D03D54A
3DF4D8D6
BD6450D8
BD9D3C45
BC0BD52B
BA5EC06A
3D4DC3E0
BD9F9898
BD0D172D
BE1809F8
BD924536
BD6C6CEE
BBA6E821
3D419CD3
3CA5C78A
3DBCEF92
BC58E3A7
BDF18731
BD5C3AA6
BDF5FD02
BDDF1AB9
3E2B0882
BDA0C370
3D76DEB1
BD8036F7
3DBC2C70
3DFE845C
BC758ADC
BD43A401
3DB46D63
BC2C91EF
BDD3B7CE
3DDE4FF1
BD449751
3D8C4C7A
3D75F50D
BD082BBE
BDF26A82
BD9CC8FD
BD1BBA71
3D8645D3
3DD3C77B
BC21D573
3DC33EA4
3C27C50B
3CD646FF
BD341CE8
BD9BAA6E
BAAC9824
BDB5DC09
BD5BC9E5
BD2AB4DF
BD828676
BD70F7F2
BC4888C5
3C95B096
3D3088CC
BC658BB6
3BAC32A3
3D9F35C2
BDA481AA
BD8BA8BB
3C9A7770
3C8BE622
3CB45B2C
B920A450
3D92D9FB
3D5C369D
BD6459BC
3CCF8AC2
3C735B6C
BD9C5276
BBA3F817
3DF5684F
B988BAA4
3E0B4381
3D914B0A
3D5A3B3D
3E017803
BD26A52E
BCA32F14
3D3F9F9B
BC7FAE8C
BD097903
BDFD6819
BE06FC37
3CEE973D
BCDCCCE0
BDA45CE9
BD642FB8
BDFD737F
3BABCCB7
BD477CF2
3E0D6E5A
BD4B80F8
3C58AD20
3E097690
BE099776
3DB50E61
BD813367
BDD6AD63
BE211356
BBC7A0E9
BDD72D74
BDF8FD94
3CFF2986
BD88DBCF
BDC9860E
3CA43732
BE204791
3E087D14
BD16C691
BE1AE551
BDA0FBC1
3D86171A
BD633E33
BD7F104E
3D8C2C7C
3DADC798
3B325F8E
3D99FC39
BD550CF0
3D8163CB
BCF2E494
3DB484BA
3DB0B1D5
BD4998C8
BC2E5CD5
3D454CD6
3C98A390
3D477339
BD97C1CF
BE270323
3DE0D795
BC63EB42
3E10E5E1
BDD1E213
3CD37263
3D27C36B
3E040A99
3D8AA7EE
BDE1FFDF
3E1A5D40
3D753F0F
BE1A949A
39AA55FF
3D97F738
BDAEFA6D
3D91D687
BD996A94
3B0A1746
BE07AC05
3D501417
3DCEE6CE
BDAAF69A
3DAA55E6
3D841C25
BDE8EA9A
BD785C9B
3DB14CDD
3DC1EE33
BC2D57DD
BDF51327
3D0DBCA1
BB74C30B
BB3B7A14
BD972966
3D8489D0
BC0283FE
3DED4952
3DCD9B70
BC1E4815
BCB8EFA6
BDB2B49C
3D8B4147
3D2E5294
3DC98BD2
3C4E412C
BCF1F58B
3D129C9A
3DFFFF52
3CF1B021
3DB9C192
BD98F24B
BDBBAB0B
BDAB6C2D
3D85FCCE
3C8B56DB
BDED0247
3C95E728
3D3848CF
BCD2C8C5
BD52D2C3
3AC23BA4
3DDC6443
3DF6E4C2
3CA1652A
BD56099F
3DEDE2F3
3D2F6FB2
3DDED0C3
3E08C957
BE00D626
3D1E0B33
3D8E5104
BC85C3EA
3D8F06FB
3DDB6CF6
3DBA80C9
3DC7021D
3D2093CF
BD485D6C
BDF663DF
BD8849AA
BD5E1C80
BD0D41B5
BD9F4971
BD184D74
3DE478F6
3DD0414D
BDA72E54
3DDEECB8
BDE24D0E
3C214D4D
BDF9915A
3D5A3F84
BD44556A
BDEB70D9
3DFA929E
BB26355E
BD8BD5AC
3D9B521A
BDDEB6A0
BE13CBEB
BD2D0E84
BDC1827F
BB6BA906
BE010FD9
3E12CEB1
3C35212A
3CACF9EE
BD4CB3AD
BD89A13D
BD09399D
BD04954E
BD4B4662
BD0E7F1C
3D6D8399
3DEFCEE7
BC440467
3DAB78F9
3E036878
BD45D2AD
BD5B83C7
3D952933
3DC395A1
3DF81B69
BC373520
BC952FB8
3DD88B33
3CC8CF98
BD57C948
3CE09D1E
3DFDB19D
BD0D295C
3E071FB3
3CE88357
BCD5627D
BE076F06
BD82D669
3DA5281C
3DE559C3
BC426A53
3D492B2F
BDC5B4A1
3D3FCADC
BC150F06
BD3B42DC
3D886EA3
BBDAC7CD
BB953FAD
BDC6A834
3BA8C45A
3DEC7C7C
BCD13923
3D9C310B
3D46656F
BD92CC6C
BDF9A623
3D984DEF
BDD1C3C6
3C283655
BD284DD2
BE045B43
3D7C0C33
BDB8268C
3D2EC5CB
BD8353C3
3E0BAD11
3D395402
3D9E0330
3DE3481E
BD8D7AA6
BD652DA4
BD9D47DC
3D815034
3BE2F00F
3D465A55
3B9EB60E
3B32D52A
3D2F0198
3DCB53F1
BD8E1AB5
3D6EC47C
BD803C2F
3D8E6ED9
BDE668FB
BD9817C5
BD882D57
BC05898D
BBC231FF
BD3BBB55
3D8BC9D1
3E02403F
3BA81F43
BA598BA2
3E0A632E
3DB9D0A1
BDA105E4
3D1EADD3
BDB89450
BCAF718D
3C24F8C8
3DE45644
3CF0A2EB
BDA8FEA6
3CAA0384
BDDB2E4E
3D4A5076
3DEE9178
B9A4817F
3D836C08
3C7F5CB7
3E0AAB48
3DDF3805
3DFBEBFE
BD924636
BAAA0CD9
3D7E92E8
BDE4AF66
3CA4A9DE
BDA105E7
3E063B74
3CF6D1D9
3E0C0A2A
BBF29D56
BDA31914
3DA48F2C
BCF4CB13
3D6E2C76
BE08B7C3
3E015018
3D6E99FC
3DD89B8E
BD7B87E1
3C97259C
3D80E992
BD72576E
3DDD4F95
3BFD94AB
BDA84D1E
3B86B510
3DA0A8D7
3D054E7E
3DB0C826
BD1E436A
BC6D8DE3
BDF10DE5
3D9FFC3E
BD0AB419
BD6AB80A
BDE58995
BC63748F
3E356DA4
BE26CB5F
3C365C3D
BD9AD79B
BB6A7178
3CEDD50B
3DC3BF7C
3D3C08AF
3D67EE39
3DAB5598
3D00AF15
BD09515D
3C6D1E9C
BDA6D3E2
BD7DCDE4
3E0B7B3E
BDB2506A
BC015332
BCAAD34D
BD409A7D
3E1CB1DB
3CCD012A
3D310EB3
BD95B931
3C912079
BCEF6BA8
3D88C4C7
BE042929
BDAF9169
BCC029B1
3CA56C05
3D304077
3E0711E5
BD9AD02D
3D7C823F
3D0DFA82
BBA66C7B
3D19264A
3E025601
3DE4332A
BDA97BA3
3B749FFB
BDA393F9
BC1142F3
BD981A08
BCA5EA25
3DF307A4
BDC88607
BDA4A8AF
BD551107
BDA2255D
3AABA184
BD615C69
3DBB75C3
BDB3BAA8
BD87ACCC
3D0D4E14
3D7BE005
BB80336C
BD45F2F6
3DBE0292
3DC5729C
BDC5E53A
BC41F56E
BD2DE447
3CF0A3FD
3DDA294B
3BF640A4
BD51A0EF
BD999042
3DB3C49A
3D7DF5DA
BDB51301
3BE73503
3D553C2A
BDA5E420
BD990B53
3CD16456
BD87AEA4
BE05A0E7
39129F54
BC9C2631
BD26C343
3C51B290
3D8054DC
BC9FDB37
BDF5BF07
3D901F6A
BDB5120A
BD79FC58
BE140B1B
BC609B20
BD3F3476
3BA1F3B0
BCBD3FE7
3D55028E
BB81910F
BD041A9C
3D62F0E6
3CD02166
BD49E353
3D52BD4A
BCFC496D
BD798DCB
3D8E8EC5
3E1500E3
BDC06849
BD65C82E
BDDDC675
BBE1D181
3D4565C8
BC91E875
BCC3B5F2
3C9E2D12
3DC25DDD
3D9B26C2
3D372A9C
BD8898E5
3D9F8E12
3D703321
3D9DF7A6
3D387349
3CB2852E
3CCD97F9
BD8BB830
BD90E005
BCA1CFC9
3DD65C6B
3CAB033E
BE10D730
3DDDF195
BBD603D8
BD19FBB4
BCD20180
3D19EAAD
3CC99B6A
3D1751AE
3DE8FB5D
3D9136D0
3D85E726
3DBC606F
BDB0B051
BCF541E1
BB3D4647
3D60BCE1
3CABDD84
3DAE1652
BCBFDFEF
3D52BEB7
3D2E93CA
3D537977
BC0E3AEC
3DD8EF3D
3D80822A
3E0AC152
BC1F2E23
3E160748
3E20449F
BD9FB390
BD01B7AB
3E0695AF
BD594EFE
BD131E4D
BE1BC07F
3DA0AD27
BB959F4F
3E0C324B
3B5AF17E
3DFF598A
BD3F422D
BC8CA48E
BD7B1141
BD1E07E3
3DDDDBA6
BBEE27D1
BD4F577E
3DCC3D2B
BD8771DE
BD03246D
3CA745EA
3DB711D9
3C821D6C
BB5C0CDC
3D5F7038
3E07B748
3DB8100C
BD06D051
3E1FF007
BDB0A11C
BDD2B184
3C1EBDF1
BB4A59AB
BDAE1E74
BCE365B0
3C913F38
3E2449E5
3C1A15C0
3D25C61D
BD668B37
BCD417F5
BE070710
BD7D4FFF
3DAF24EE
3DA087C6
3D46BD16
BE06A37D
3DB89090
BE1F5D9A
3DE6DF75
BE206B02
3DD261CB
BDA4D4E2
BD290217
3CBE49E2
BC38CB58
BDA176F0
BD88C36A
BD0C2CB4
BD859BC1
3CA72E83
BDE26214
BD2732CA
3DF1268A
3DDE251E
3CAC4C34
3AFACE12
3E05FCA6
3E11AF63
3DDB35A1
3E091117
3E0E1CAC
3E11E210
BD2D6FF3
3B911A9A
BD3DBBF0
3D8AC1FE
3E0395F9
3E1ED938
BD91FCD9
BD23FD93
BD30800D
3E055770
3DE3ED26
3DDC4E29
BC8DAC51
3E0702E0
3E0AF8C2
3DB15DCF
BD2B28CB
3E0CAA30
3C6AEBDC
BDB172C8
3DCB40D6
BDDDD3E2
BB267EDA
BDA26146
3DD6118F
3D30DEE8
BD9F6CFD
3C3B5D59
3D3064D2
3E37E356
BD1C6D54
BDE71CD3
BE079612
3CD1FED6
BE1910F5
3DFADF4B
BCCB9C7B
BE03F850
3B8637BD
BCAF2009
BE05567D
BD90D185
BC8FB0C2
3C9465C8
3D334100
3D78BB98
3D4D9D2F
BD162523
3D5B59C8
BDB79252
3D525AA3
BD0121A9
BC55FCD7
3D3C76C9
3C784D4E
3E22ED53
3DCBA832
3DA85F13
BD5E6454
3DE7ECAF
BE003A72
3D08FDA5
BDF436E1
3D5FDF13
3DD34685
BD6AA7EC
3D47FF9B
BB9DCAEC
3DCEBE2D
3D82001C
3E20F218
BE1DBBDF
3DD87402
3C8CAAC3
3C3814C4
BE1BB74E
3D5146FD
BE17170F
BE189B73
3CE70614
BCC80090
BD7FF6B0
3DB6E0A3
3D8D0D2D
3D89E126
BCEE442B
BD796B9C
3DA925FC
3DAA1183
BDC2BD18
BBBB95D8
BD748766
3CA5E5B8
3E10AF63
3DA1F7A6
3DD45430
3DCF7B3D
3D065102
3D42AC6D
3D910490
BDB64ADB
3C23F258
3CCD65A9
BD92148D
3E02FCDA
BD57316A
BD2BBD73
3D0E07CD
3DE2BD38
3C8F07D5
BDE159DF
BD8F0850
3DF66A9B
3DB48B62
3D99B7F2
BD96E7B5
BA817D6E
3DFCFBAC
BD8223DC
3DF58CFE
3C75706F
BD636082
3D4F7CBB
3D0699E8
BD9CFCE1
3DE3A8AD
3DB590E8
BD1E75C7
BDCFCC5A
BDCB34D9
3D6119B6
3D919430
BDEC4890
3B58378F
BD3D47EC
BDA11EF8
3DB8D6ED
BD9CDCF5
BE112853
3D6563E8
BD5B56E3
3D40F236
3DB5D8A6
3CBBA5A8
BD854694
3CC1DE5C
BD635B09
BC6F1CCE
BE04C526
BCE1F88E
BE0DCA95
BD91A5B3
BCCD5B88
3D0AE148
3DA16004
BDEABFD1
3E020587
BD835F02
3D44D143
BD9D8879
3DACBDF6
3E128630
BD8C94EF
BBB61BDB
3E03DA95
BE0DF4FA
3DFBF4EF
3DA7423B
BD5B08AA
BD117FA2
3E1418BD
3D896B27
3DAE8612
BD666FCE
3DC97E13
BD53B836
3D816CD3

