BD6FF310
3DE2CF61
BC7A96AA
3E867361
3D240CD5
BB133277
BC42D426
3DDE8443
3DD3915E
BC36460D
3E478F73
3E5689B7
3A8AB2F7
3DD7C565
3D7C0224
3E407E68
BD41EA23
3E0BFDC9
3D726476
3DC35335
3E1E35CC
BDB0B5FE
3E116623
3C6776DD
BD61BF35
BE0B0ABB
BD0A92C9
BD7ACC17
3E2450B9
BDACF9C7
3D3B0661
BDF904F7
BBEA3B5D
3E495EC3
3CB4794F
3B6ABA1E
3D9F266C
3D0F54CF
BDE1DF1A
3DA17146
3D926597
BD5865E8
3E1F3B64
3CACA10E
3E6FF3BA
3DF563FA
3E6C58CD
3E150067
BE57D642
BDAF68CE
BBC18E15
3C7ED609
BD9A9504
3BDC8628
3D4B4838
3DED6580
3DB50F59
BE808C34
3DA7AADA
3E6765D6
BDE5C1D7
3E58FB2E
BE2B21A7
BD996672

