3D299DCB
3D653102
BCEC58A4
3D97F028
3C9388DE
BD0DC1B2
3CEA6615
BB3A2805
3CC90FA9
3D7B71E6
3DD339A2
3CEA110B
BDE6D8BD
BDC2624B
3D8143D8
BCE360F8
3DC93AB6
3DCF78E4
BDB19690
BD173DBF
BD839EB1
BC971F1B
BD2A347C
3D80D013
BD84CCA1
BDAA95EF
3BDDC52D
3E0D2118
BB7AFEB9
3D49F102
3D934F57
3CA93249
3DC1FC80
3DF0D098
BD92049B
BDD81C45
3D2007AA
BDA5A4D5
3DA5F3A5
BE1D78A4
399CFCD0
BE0CC241
BB938401
3DDE82DD
BD471E70
3DBA137D
3E0B920D
3D16C630
3D83A737
BD98EE17
3DB5626B
BD8B5D2F
BDE3D8B0
3D06A157
3DA614F4
3C419AC0
BD103AF9
3DF6BE22
BD209C0D
BDB961E4
BDE6D9C0
3B895E23
3C5E68C1
BD8C9E61
3C5A1ED0
3C4A4D2B
BD4CE8AC
BE0E022E
3DA51FD8
BDBF236F
3DEF5797
3DE5D4DC
BD99717D
3C983CE8
3DAA438A
3DBB1133
3C736C13
3DF1A3C5
BCEFE560
3C33DDDE
3DC933DB
BDC0EF66
BC8E9910
BDB7BA46
BDD2ADE9
3D69BB1A
BD0FA7FE
BD0910BB
BD1DF2E5
3DCD2533
3D8D35C7
BD57B5A1
3D11E332
3DB98DC6
BBFEB63E
3CCF6808
3E009F61
3DCB9CFC
BD3582BC
3E30A420
BD445E16
3DEF84D4
3E20B96B
3CBC4DCF
BAA87C36
3E18C85E
BCC7F0C5
3A0F3C49
BB13611B
3CAA445C
BD5E86C4
3E064F3C
3DF5FB05
3E1616EB
3D4EC088
3D7A1327
3DC2A2DE
3B31511B
3D72DFB1
3D69F0FA
3BC78B44
BDA7E2C5
BD2D6C6A
3CCE19CF
3DC9DBE3
BDB8875B
3D4CA7D4
BDC1D06B
3D362EE6
BCEFD36D
3C7D34DF
BC2334F9
3E365AAF
3CA642A5
BD55E25A
3DEAE59B
BDC909F9
BDA3A455
BCCB86AC
BD622C60
BC837F56
BE08FC61
3AE78BEB
3E19134A
BE281F58
3D20E596
3E162CE8
BC8694B5
BD1CC3A3
3D13B4FE
3E3C0F34
3C1C731E
3D574975
3E312B21
3D853AB2
3D5EC392
3E39123A
3D83ED60
3E3DE18A
BDB08523
3E049288
BD2E1CC1
3DA8F245
BD1EF83E
BD7B1F83
3CAA911E
3D19D7DD
3E1720EB
BC6F4283
3DBB2343
BCDC9C02
3DE825D2
BD14BBB1
3E3C7959
BD020FD0
3D66075B
BE059F28
3DAD7BCD
3DF90BAC
BD89DA7B
BE1438A8
3DF7E71F
3D24AE9B
BDA806D8
3C757A76
3E04359F
3CD98405
3E3779DB
3D590CB7
3D76EC6B
3CF0BB84
BD2CC19F
3E031D4A
BD0E2745
3C1B4F7C
BB921C62
3C815E39
3D261EEB
3DD8DA9F
BD468EA2
BC5755F2
BA711A09
3E2A7FE1
BD912177
BCDD296C
3DAC31F9
BD71F3FB
BC3681F2
3E2E332F
3D718B18
3E2B23C9
3D5A02D6
BD53735A
BC7FBFDE
3C0D1CC9
3E355D86
3DBE5752
BC178CEF
3CDC7D59
3E3B01FE
3DA78808
BCFAFAC3
BDF0C9F1
3D128559
BC82A185
BDDAFF71
3C40660C
3D07C3E1
3C9151C7
3D34299E
3E24FE39
BD19E26F
BE07D9FF
3BC18A64
BCE8B454
3DD15A0A
3CEE6A7C
BD7CBB7D
BD334768
BE3BAF1D
BD337040
BD98F50C
BD3A2E32
BC7B2F81
BD5500AB
BD55D56F
BCE09323
BD8B90CE
BCE9908D
BD96B59D
BD35ABCC
BD90E1A5
BC096051
BDAB48CC
BCFCD8E9
BD817A1E
3D7F032E
BDF19EAB
3D3FF749
3D9E4D16
BE038181
BD8DB9B7
BE13E3AE
BD1BB68A
BE04A7A9
BD81421D
BE2542C2
3DF8536A
3D9E9F26
3D2B95F3
3D73271C
BBD375B3
3D6FEDFC
3E137DFD
BD94A728
3D81BA82
3DF629BB
BC5012D2
BD84B11B
3D85D8A5
3D85B87E
3DDC48B9
3E332064
3BB7BCB0
3DE61AA7
BD0728EC
BCB32E5B
BD05383E
3DEB7341
3C2F3DE6
3E3550C4
3D1F3786
3D07790E
3DC92999
BD8E3C8E
3DCFDF84
3DF3EA7B
BBE8341C
3B9F387F
3D0D4B62
BDB2F824
BCE34A42
3DF37114
3D9773CE
BD82456E
3CBD2CB1
BE12B6FD
3DB98FA1
BD4987FC
3C71562F
BDF81875
3C524319
BC948E78
3DFDF0EA
BD3E87AB
BD4E77A8
BD295800
BD879D9B
3E039183
BD8E03CB
3D6DC827
BE1308AF
BD53FAA1
BDFFCB8D
BE194D93
BDDCC1F2
3DABE9DF
BAAF907C
BE324AF9
BD1CA496
BCD90BE0
BD8071DC
3C532F12
3CB80991
BC8B0A60
3D0AF72F
BD81878C
BD555FBB
3E0A14D4
3DECB6F3
BD8B8E2D
3D0428E7
BB8DCCC7
BD82CC58
3D8D53A2
3CF89710
3C5D45A1
3BDAE2BA
BE233B94
BDAB51E7
BE356DEC
BD825BC4
3DE6AD80
BDDACE40
BD81AC50
3E1E3003
BE47A1B5
BD561F97
3D0979D9
3D4BCF01
BE10EF96
3C213092
3DE4931A
3D66FC1B
BE30C845
3E2A4BD7
3C8506AA
3CD22A8A
3C673C90
BCABD6C8
3DBB0905
3DB6FEA5
3DF4F09D
BD65ED45
BCFEAAA0
3D2E3D50
3D94C0D2
3D0323D4
BA096066
3D9A0A30
BC1B018E
3D0FBD42
3E2A5112
3DDAD357
3E1CE460
BD0E1FD1
BD2C58EF
BCD21851
BAAF75A4
BD896841
BD755F9B
3D27526D
3C38B6AB
BC48AF46
3DE8D61A
BDDCFC33
BE2C53F6
BDE1C520
BE1EB13A
3B3C5D13
3DFE8B36
BDFE7EBF
3B54837A
BCDEC6D0
3DA21FBF
BBBCEBC4
3C3C7608
BE05AC31
3E097FDC
BDE5DCC8
BBADB0D3
3D972AE9
BDDA0221
BDAFF825
3DF08CFC
3D5189B8
BDB07B86
BDC094F1
BD1298C7
3C5C0A0C
BCCD5080
BDE3D2C6
3D7BBB8B
BD072C19
BDEB6199
BD256DBE
3D13030F
3DD5965F
3D075391
3E0CD349
3D89D4FE
3DD6E55B
3E09CC93
3D5165DE
3CC6E4DC
BE3D70FD
3D27F53A
3D70639D
3D9721C2
BC3B6069
BE0CCD1E
BE0D7069
BE1F56DD
3DB00395
BD413BE2
BDD30282
BDF6AF59
BB9FDA66
BC0DAE7F
BD87A8CA
BCD63069
BD040CF0
BE248309
3CC69EF6
BBBCE477
3AD5AA16
3CDA6CE3
3D82718A
3DDA9034
BD3EA78B
3D0F10D2
3CDD7216
3C7192B5
BE0A1ECB
3DC351FA
BD8E0039
BD87F786
3D8803F9
BDDCA271
BDFD358E
BDA6D859
3DA3555A
BCE257BE
3DB98947
3D16769A
BD944EC3
BB7FAAC6
BD280DE6
BDF02D79
BDFAB345
BE0C1262
BDFC873B
BDEFC259
3D17FB01
BD419625
3D52C13E
3DD6F93E
BC573591
BDACBCC2
BC615AAE
3DFD55EC
BDF8D022
BD71B857
BBE6F502
BDD07776
3C988466
BDDDC1BD
BE14CB21
BCDC33B8
3D8DF1B3
BDF9DC06
3D90E985
BD5D7A1E
3D8EF572
BCD1C057
3CD25A2A
3C30DA5E
BDA993ED
3DBEC06E
BD9DBB28
BCFCB212
3DDB7D4E
3DCF6472
3DECD9F8
BD23EEBA
3E045B95
3CC3817A
BDDB4D63
BC834E19
3D98A6EE
BD530C24
BD8F0DB6
BDCBCD59
3D97A558
3DA9E672
BD2F166B
BDBC7C98
3DE88F96
BE053F69
BDB0F909
3D406888
BD700E78
BD134684
BD23F400
BCBB9964
BD445184
BC833122
BDEDA487
BDBBC146
BD069083
BCCC58F4
3DB3433A
3D8072C7
BDFECA4B
BD183D66
3DCC58F4
BE11DEE3
3DBDFFF2
BDC601DF
3D122E6E
BE2CF442
BDA3687C
3CEC926A
BD9E0A6A
3C4FBDEE
3DDE94C1
BD401811
3DE5E77F
BDEC37C7
BDEAC5AE
3DAA257E
3D6C66C6
BDD5128A
BC3633AE
3D3160F6
BD96294F
BD7B5985
BDA99707
3DBBC7AB
BC379B78
3D0CC5A6
3DCC8981
BD54B023
BC0F4F49
BCC1E7EC
3DCAD442
BD7CFB66
3DD8E4FA
3E0431AE
3DC79838
3DD50A00
BD44A38B
3C8F4964
3C1E68C1
BD8C8DBE
3C5AB0E6
BE11D0C3
3DAAC901
BDB19360
BD8BDEDB
BE01E8A6
3CA53DC2
BD0194CE
BC62C5DD
3D622173
3D921B03
BDA00EE1
3DB4367B
3DA96F65
BDFDDDB1
BCE15A28
BD10B76B
3D3BE11A
3E0074EC
BDE1DBEB
BD4FCCCA
3C98121B
BD1A3335
BDC73D1D
3DF64277
BDA4066B
3DDA90E7
3D50E80D
BDAC7101
3DBD75AF
3DEE8E79
3D8B0F15
BD2BDBC4
3D844B65
3DCE6004
3DB9406D
BD20B62B
BD9D8E28
BDBB37E4
BD2F5CA4
3DD6593C
BE0464CD
BDCD6EA2
BDD05871
BC9012AD
BD96F0B5
BD278342
BD379F3B
BD043EA6
BD4A32C4
BD01D1AC
BC0F1F4D
BD84DB49
3B337208
3D1F04BB
BDE623BD
3C96DBAF
BD1FC1BF
3C4463C8
BD29C71E
3D133AE0
3CDD3FDC
3E57786D
3E03481D
BCE301F3
3CE700CB
3D547EB8
3D75F268
3DC83AFA
3DC8B217
3E5FCBBC
3CB73C62
3D38E8B7
3E4FDE93
3DCF0A12
3DE68B9F
3CCDEFD8
3E3BCE42
3D243407
3E23764D
3D8FB3A3
3E26F9A9
3C2F10EF
3DFFCD64
3CC8544D
3DD12A5A
BCF84AAF
BCB29274
BE3BD7B5
BD4F1442
3E27104A
3BB2A026
BE2AA8A7
BDEFA9BE
BD843D8F
3E316F15
3DA3F8BA
BD967BF1
BB541617
3E2A5BAA
BD1B0C43
3E22D938
BC1B2A89
BD7A2A4E
BDE28773
3CE4DCB4
BE3562A5
BE4EB6BD
BE3E1461
BD04FBD0
3E536D86
3C50C56A
BDDFDD1C
3DBBA490
BD1CBC94
BE08A8FA
3DB43C8B
3E56C5A5
3CF51297
3CFF693C
3BB39706
3E2804C0
3D752D19
3D812BAF
3DA0EDC5
3DB533E4
BDC0BED9
3E0E1EBF
BD9AC2D0
3DD2807C
3E1ABC98
3C744867
BCED4BB3
BC5A948C
3D9A395A
BE2FE05A
3D9EC033
BD90C0D0
3E42369F
BDDD8FF3
3D5341D9
BDA4A164
3E3474C8
3A6F9829
BE27EDC9
3D8E11C4
BE246D48
BD431998
3E1DBEFD
3DB04654
BD696A34
3E29BD86
3D661B8D
3E033ADE
BD9BAFB1
3C8C92A5
3E1E0D44
BD223882
3D8C93A4
3DDF6EC4
3CC8DEBC
3D999D42
BC5E0ED4
3D91C3A9
3D3D3E31
3CB60327
3DA2C0EA
BCE02671
3E06993B
BD267D1F
3C4C5C44
3DD47D61
3E0EA722
3C41A84C
3D8296E0
3D93541D
3DF10999
BDB9CC8A
3C2FA2F0
3D47AB6D
3D4E21CF
BE19903D
3E0D6444
3D39076E
3D7ADDEF
BDEC9905
3D91C9AD
3E30EB0E
3D0BB3EB
3D180FE7
BE27D8A3
3E2C74CC
BDA9CBAB
3E1AA8BD
BD6107FB
BD40DF4E
BCFC743F
BD0253F0
BDF85E8E
3D720107
BDC7130A
3D6FBD72
3DD2DC26
BDFF2E74
BDDE585B
3DB54844
BE1AD609
3A8BB601
BC9D3759
3D7F9031
3D01D0C8
BD646B44
3DE1B012
BD88A6D1
3D20EB85
BCDDB466
3D63A219
BC8B2085
3D8653A3
BD9513FD
BDB7B29D
BD49E935
3DAA7620
3D2AC998
BD95B707
BD67A1AA
BC06691B
BCD61F41
3E109CF9
3C5A8FC4
BD9F2322
BCE73DDD
BD84D5AE
BC908935
3C95DE18
3D2A781C
3D9A01D5
3D361733
BD3C08E2
3DA2BDE5
3DFA3D75
BD8E8F39
3D819A30
BAD5AD1B
3C821DB7
BD37D0FA
BAC06739
3DEB07AB
BD9FF821
3DBF8104
3DD8EDED
3E109CC0
3E0F04A4
3C9D3B90
3D5EE637
BB619633
3DC55A2F
3DE7C50E
BD6E869E
3B8FF43F
BD179DE9
3E09EC61
3D8566C7
3E15544D
3C624AAE
BCD0E688
3DB4643C
3E363EC1
3D1D84F9
3E01CBF8
3D423C9E
BD99A5BF
BE05C569
3D4363F0
BCD90E4F
3DBBF99B
3D1290FF
3DDB13CE
BD2D9FB3
3D388A8B
3DB2C043
BD55DA2D
BD51C1D9
3E2558BD
3D438B83
3BB5C3F2
BD702463
39C89A63
BD4C9EFD
BC8E2DE0
BD8CF4C6
BDA702B5
BD995AA3
3D1F9AF0
BD301E71
3D06CD14
BE054AD2
3DB35CE7
BD524BD0
BD5106EC
3D84A6A8
BB3A9DA0
3E04A054
3CEEBE14
BDE96F1D
3D8069FD
3D249EDB
BD2C618B
3C7A5D54
3DC26F9F
BDA93F19
3D301264
3DC6C897
3E01D358
BDBD7ED6
BD983C17
BD734770
BCCF48E8
BD883786
BD824093
3DBC417B
BC33F79F
3CA88FDC
3CD2DECA
3CB0C941
BDB14BBC
3D1966E4
BD693068
BDBB00F6
3D5E6670
BDB04D4A
BCE25D73
BCCD3AF1
3DE2651A
BD93DA3C
3DFA11F6
3BCEC5A0
3D01C3D2
3D9AE1ED
BC968EF8
3E1ED540
3DD36D98
BD93B444
3DAE0980
3D243B74
3DEE442A
BD8627DC
3C85B597
3E06225C
3D53F042
3DFD4EFB
BD726807
BD1DC31A
3E04146B
3CCF17D0
3DFA9C22
BD72E48C
BDB36480
3D287B3F
3DB003E8
BDAEEC7B
3E119E25
3DCF3FC0
BDBE9318
3DD330B4
3D80E733
3D0EEE8D
3C4CCE9B
BDB37559
BE0D956E
3CDB1072
3E0C2985
3D9E52AD
3D6B72E5
3DA881FA
3DCF918C
3C40F203
3E1423C4
3E034EC1
3C8C303A
BD8A4AE9
BCEE286D
BD2C4E4A
3D366979
BDE3E0DC
3C6799E2
3DE7E217
BD9B1B89
BD5477FC
3D7069F3
BD045384
BBEEAB84
3DB46FCF
BB82BCC9
3DC368A9
3D802E37
3E0DC558
BD800B03
3D09782C
BD1C3EC8
3E193CC5
3E041066
3D5CBDAB
BD846C08
BE13165E
BD8A1EAB
3DDFADBF
BCC95D57
3CC55D7D
BDE7A45D
3D7277BF
BDDCE9EE
3DA21535
3DAB4946
3E09798D
BDCD8DC5
3D68D5F2
BDF04F5D
3DB6A364
3C589583
BB147518
BD0EFC6A
BDF3AEE7
BDCBE434
3E1B0DCA
BDC1BE66
BD358C49
BD1BD80D
3DB7DACD
3D510CE8
3CBC4038
BC9FDDC1
BD6364F2
BB8B14DC
BB8DBD6D
3D4018BA
BD0BE51E
3D7D833E
3D81993E
BD92800E
BD457146
3D835FB5
BCE36EB5
BD600795
BD9CEC41
3DFCE351
BD80F1AE
BBCB20E6
3DC4EB44
3DC5052C
3D015FF4
BCADC240
3C6CF4C0
3D4D5F11
3D458815
BE0D648C
BE0BC6AE
BB409404
3DFDEA63
BCDE3AF4
3BDAE0CC
3D8A2BD2
BDCBC979
3DE5ACF2
BD5A4EEB
BDC3320F
BD25687F
3E2FE158
BDEA550C
3D938F5D
3DEC5FB9
3D1D375E
3C3D4525
3D12BC32
BE25C879
BCFF2D6D
3CF62F27
BD379F39
3D0399F1
BC8EE404
BE2B804F
3DE0F88B
BE22031A
BD5E8CFE
3DB09B98
3E30D800
3CE5B76A
3D1E552D
BD9F7CA4
3DD21905
3DAA6C5A
3E213F55
BC283080
3D2411C3
BC51EC3C
3E101BD6
3D7233BC
3E02BF57
3DA1F13C
BE06F40D
BDDE2509
BDD5A05A
3E071536
3D2A1AC6
3CCBC2B7
BDCB26D9
3E04AD6B
3B8C20F6
3D626EC5
3D6C58EC
BDE2FBF2
BB556578
3DE40266
3DDB4447
BD937545
BDB2968E
3DD53872
BD1638A4
BD6B8C43
3D4215B7
BD062904
3DE0EEDA
3D015D48
BC5A1F10
3E2B2E71
3DD26DBD
3DBDB942
BD44D20F
BCA53371
BD0C6C75
BD43232B
3BD0FE60
3D9111D6
BCE42AA2
BD1D4A03
3D2B3D93
BB64A42F
3CE388C1
3D2417B7
3E1AE614
3E1F6CD6
3DEEA94D
3E1897F6
3D93CA90
3D91C8F5
3D3E5D36
3DD8CAE9
BDAA0E57
BD23722D
3C40879A
BD86AF4B
BD5B6968
BDA2802F
3CF33E0B
3C30F7AF
3E0C418B
3D71D159
BDA51540
BD595292
3DBEDDED
BC925C39
BD2C60EF
3DBF83AC
BD3BD889
BD86C460
3E1B6FAC
BDE949DE
BC92851E
BE1C09C5
3D658B12
BDE53869
BE06F405
BDE4A310
3AE1BECC
BC669286
BCD7FA63
3D7AC16A
3DCF3E3A
3D8A1A6E
3D9B5F08
BDF48352
BD891AC2
BDD0C871
3E119AC9
3DBE224C
3D88FA0B
3DC7DA3E
3E02BCE2
BDAD2693
3DA331E5
3E085C7E
3D26AB0A
BE13A229
3DC31539
3DAF811F
3DB4AE6E
3D33B43A
BDF12A5E
BD3E7701
BE36FD92
BD97E496
BD97F0B6
3DFD6945
3D95C419
BDC7AF3E
BD129696
3D0A184F
BC0F3C28
BD41EFAC
BA89CF77
3B2CEB5B
3D056103
BD78B352
3DC2109A
3DA0A615
3E24600B
3DEBA06B
3CEAD4FB
3C4827C2
BD79A505
3E279D92
BD78FCC4
3C76FB1F
3E19895A
3E33EE79
BD27D970
BD8F07D5
3DA20CD7
BD3E2AC3
BC8624FD
BD30CE41
3CCBA57B
3CA0B8F8
BD23889B
3DFF88E6
3E147626
3DD8DC2D
3D228297
BD1113AE
BDE8E8EC
BDE27663
BE46BD66
3D937F74
3E0B05D1
BDC79778
3C8E7A57
3D40A8E0
3E1E6083
3D805A97
BDA80544
BCDC0DE8
3DAEA92B
3D6CA05A
3DF697FD
3DE54EC4
BC9F4F51
BE10E426
3DE36A67
BBED5025
BC8329B0
BDA6B37E
BD518F72
BD5E48B0
BE0E7803
BB878AF9
BD41B610
3CD48AD1
BBF5C3E7
3E0C67B7
3C0E7539
3E12BF30
BE17E49D
3D6AEA37
3C3C6E50
BDA62D20
3E381E82
3D5427D5
3D8747BC
BE52F3A6
3E233C57
3D3DE1E8
3E1C47C6
3E3FC089
3CFCEBAE
BDB49FA5
BDA635FB
BD22CF00
BE18A3DE
BCF67E37
3B327C94
3D0E5D89
BDBA1F56
3E2B3429
BE37C301
3E1239A9
BE1AF250
3C9AA994
3E0E9040
3D02C760
BE026130
3E39D8B6
BD5C7D97
3D57DBA7
BDE47C6B
BC1F2C76
3C55F306
3DD3E6ED
3CECCD1D
BE022C86
BD0CD84E
3C81919B
3CF1CD6D
BDDBAE85
3D226ED3
3BC0181E
BD964247
3CCD5BAE
3D827649
BD0B106D
3DD7FE1B
BC36C3D7
BE04D11A
BDD07A2F
BD79CB8B
BD212FA8
B92FB86A
3DBB3AA5
BDD32D8C
BCC9D577
BC986196
BD24B648
3D0088AF
BD12938B
3DF19F77
BD2C0EBA
3CE575EB
BD1AE4D6
BDA8A7D6
3E166146
3D8BA1A0
3D1164CA
BD1E3BD3
3DD59A37
BC15212F
BDC3FE7B
BDB2D8E7
BD5877B3
3DB45B20
3E0DA78B
3B594C37
3E0012B1
3D540E37
3DFBE23E
3D90CD33
BD75E953
BCEB503B
3D0B5157
3DFB7927
BDD5C064
BE00FCCD
BDE0BBEC
3D2D5FE2
BD9B6509
BC8D26BF
3D20889E
3DEF1A8C
BD7BD1CD
BCEE802B
BDA7F429
3D4D24B6
BDB17840
3D8EEE0E
3D22E136
3DE13794
BBF8F0AD
BD6088BC
BD46556F
3E029D08
BD3A395A
BD056F9E
BD7AD52E
3DBA5F6E
3CA9CCBD
BD3B7E66
BDF00606
3DC0A141
3D9CA671
3D9AD24E
BB9C5850
BDA4118A
3D59D79D
BCFB1E03
BDD564C6
BDFA088B
3D9C7A64
BCD4A635
3E166E47
BC55CB64
3DAF2E19
3DBDF44B
3BE48D89
BD9F469F
388FF2D2
BD53BB99
3D4DCD76
3CB41703
3D45BFA8
3D59C4FD
BD8DA939
BD958BCB
3E0A8D63
BC053CEB
3DEC800F
3CECE5D2
3DF6EE87
3DF8B315
3D9C6572
3C962724
3E1D08D7
3CAA57ED
3D669C92
BD1216E1
BDA0395F
BDF04FF4
BDB2247C
BB9512CC
3E272B47
3E3E1FF2
3D849C56
3DC2C763
BD06401B
3D9EBB0F
3D8E342A
3DB1C29C
3D234664
3CF43206
BD67AB1A
BD4F8226
3D735AE6
BC60E964
BE1884E1
3D84C42A
BDEE996C
BCBA0885
BCDE774A
BD8A8678
BC139533
3D8F2146
3D998FB8
3D6BBFDA
3C7E5FF8
3CE86E18
3CEFEFDD
3DD2EADD
BD029917
3CD3BBC4
3D4EF442
BC754B1B
BD4C21B4
3E1A36CC
3D6D0A17
3DD41199
BCC3E8B3
BD2A3BBB
BDF839FE
3E188173
3D8FAFB2
BDE80059
BDB9A3E0
3CE26240
3D7B2042
3D44C3BC
BC2EF704
BD8DA43B
3DEC79B5
BC8D27BC
BCD55044
BD846ABA
3D2986BA
BD9B4DEE
BCC6F116
BBB17228
3D40A867
BC66B4AA
3D1E90B4
3E4D1C34
3D910FA0
3E1B553E
3DADE617
BC7428D2
3DD44911
3E292584
3E17410A
BD691726
3D9A752F
3D7F4E62
3DED5388
3D97ED48
3E087145
BD865B85
BD9D5214
BCDA6E6B
BD37A8F1
3DA50775
3D44F062
BD9EBC2E
3C60BC79
3D820AE2
3D301A2F
3E2AC1FE
BA82D156
3E059CB4
3E07D367
3E04C81F
3DF89997
BE002CF9
3BB3D90B
BE29EE1D
3E178352
3DA0209B
3D71EC0E
BDB9C20C
BDBD460F
3E0DFABF
3E0837A9
BE027007
BC81DB3C
3DCB4C60
BCE1E471
3B2F0338
3DF8F330
BC8175B1
BD4E08F2
3DBF7F9D
3D60B9C7
BDDC7D5D
3B49D521
3DB35166
BD80C91F
BD8B1888
3DD38A69
BCF89EF3
3D07146F
BD403F0D
BD1BB37D
3DEF59F7
3D1697AC
BE0DA721
BD2A98E8
BCF6286B
3BE697A4
BD438C9A
3DBB8F8A
3D197F88
BE047B11
BD99983B
BDF39F0A
BD88438B
3D208556
BDF2E8EB
3A833600
BB85FE06
3B87A8C1
BDF0AE3B
BCF42EF7
BDEAB6C9
BBB23B91
BE4A1C32
3D8B9A46
BDCEF466
BD5158A0
3D6D4E04
3DBB60B3
BD98D9E4
3C35EDCE
BD0BCDB1
3CE0C745
BDB8A12B
BDB0EB50
BC331DEF
3DDF3021
BB79A3C5
3E0FB294
3E258665
BCF93FF2
3E13839C
3DFEB75A
3E3D7BF5
3DB9D498
3E01FF5B
3DBC7F35
3E091A38
3D9EFC0F
3DB79508
3D0A7AA5
BBF40C6C
3D1FDD7B
3E35B253
3C952104
3D9E2D6A
3A0BBC61
3D3FF9F3
3E0D4D3C
3E0DA5E0
BC84AFC8
3E4EF659
3E1A41FF
BD9B57BB
BC85ACE8
BE41759F
3E1B0803
3DE380BD
3CBAA20D
BD8A25CA
BDD0AADE
3B3D43EE
3DFB3071
BE3DF544
BE110B16
3E1CD093
BDE81095
3E462CE4
3DD8542A
BE220827
BC9E0B3E
3BEB4573
BE1E00FD
BE415F63
BDC0B5FF
3D03ABB4
3DB51EA7
3B55A289
3D87FFF4
BCADEDAF
BE36E9EF
BCAAB2A1
BD0F31AC
3D22B993
3DEED818
3D2D8C7D
3D6B41BD
3E01328C
3E22F863
3CFD60FF
3D7700A8
3DBC15B7
BE20ED11
3E050D20
3C02F5F4
3D818BB3
3D5E6015
BD9476D0
3BD314E5
BE07D185
3E48C194
BE0B75EE
3CAB723A
BD01E753
3DC30176
BD4DD8B1
3D3A194E
BD19CD13
3D1734BA
BC4EC870
BE1F6BF7
3C91E139
BDC89FAB
3C9473FB
3DA034CC
BD14E862
BCB776DA
3B51ECC7
3E0BA7BE
3E169BBE
3DAD3B3A
3D9EF4BF
3DFCF303
3DCD746A
3DD1F3FF
BDBEB762
3DA51763
3D9994C3
3D9DB457
BD013128
BDAD7391
BDF4A193
BD5A5180
BDF5A8E5
BD9884C3
BDDE5ADE
3D005D2A
BD33DA50
3D65C165
3E066FE0
3DAC78FD
3DA178FB
BD5D7C88
3DB3E7F9
BD8BE773
BDFECE87
BCC80FCF
BBD4D84A
BD9E380A
3D3C41F0
BDC362C7
BE0AD602
3D96BCCF
3E21CD2A
3CD91408
BDF4CD5B
BD926E77
3DBBF752
BD8B6AB5
BC6C2E11
3DA70587
3D81C5F2
BC90AF0F
BD922F64
BDFD3436
BD42FFED
3D92C786
BE394B41
3C295ACD
BDA3AA72
BE109F07
BD35D0AD
BDF4A343
3CF1D342
3D6C6EC4
BD97D990
BDC01A0B
3C9B96BA
3DCE6B54
BBE7CDDA
BD7FCF59
3DE80BD3
3E1CF378
3D96FB30
BCD9FBFA
3D6E7FE5
BD1D3B47
3C00ACD9
3B98D92A
BE1AF05D
BDBE170F
BD3ED58E
BDCBDBD8
BD4328A4
3D82ADB7
BD391974
BC1A2342
BDD6942E
BDB9A7DE
BC78A07B
3D54359A
3DB66214
3D9B69E3
3D81383B
BD32BABB
3D20A7BE
BD25B803
BD89D5ED
BD63766D
3CBA02E1
3DA555DC
BD496BCC
3DDF0BF8
BC9370E6
BCE9A890
3C9007E0
3DD1D6BF
BD250E70
BC672EEE
3DB8DEAA
3E0FEC19
3D934812
3DCA7B7C
3B1E10CD
BD90636A
BCE9A525
3D122448
3D943E7F
3E1D8BA2
3E0BAEE3
3E004E83
BD10ABEA
3CE5919A
BDC5C757
BCF1B26F
3D2B44C5
BD089807
BB844ABD
BDBC6A9D
BD9064C3
3E2324ED
BD91E3C4
BDC27089
BCB4B102
3CBD637E
3DA09784
BD9F19DC
BD43EF4E
BDF9B17B
3DF094D4
BCA424D8
3E0C6B77
BBC45194
BD473310
BC5988FE
3DA11B9A
BE1906F9
BDAC4F9B
BD7E8851
3CE331C3
3C8D09B9
BD701448
BE2EEA4C
3E18D509
BE017422
3DD161B5
BCCDF8D2
BC69ADEF
3DEA549A
BE198C0E
3C7A24D4
BD882EF3
BDF6E26C
BC5CDFF5
BD99ED0E
BD605992
BD99666B
BD7BE45A
BD9268D2
BD6FFBD9
BDA6525B
3D96D592
BDD94AB5
BD635B04
BCB52E60
3D7093EF
3D91FC8E
BD50C106
BDA86ECA
BE15C018
BD1B111E
BD88F519
3CC4BA6F
BD61E716
3D9940BD
3CD0295E
3D7C4EC6
BDD61FF8
3DA949F9
3D84ADC3
BC4C6554
BD5DC03A
BD42FD30
3D3848DA
3D92F82C
BC8D0B0B
3DBD6E78
BDDED549
3DE341A4
BCEEF079
3DE3D710
BDF04525
BDBB4911
BE0427BE
3BBA1814
BDCAB7E3
BE0569A8
BD759C19
BD6FC8A0
3D4D071A
3D2E1686
3CA5B00D
3CE5867D
3DB4D477
BD80AFBC
3D541F21
3CA884C9
BCA7BEB6
BDAC3CB0
BCFEB1FD
BC9332ED
BC409D94
3C290095
BDA3C60E
3DC41961
BB6C0DDB
3D374988
3DA7EE0C
BC807FD2
BD7C7DAD
BD9B19FF
BD473B50
3DB9A900
3A89AD3D
BD6C19D4
BC81E004
BCA40D20
BB482573
BDDC0BFA
3D76C97B
3D3718AB
BB8B0DFB
3D4C3F4B
3D86BA3E
BDE30298
BC242DE7
BE0B5828
3D10EBDB
3E0E7543
BD3B8186
BCFCEAC7
3D1F5C21
3DE8564B
3DD78082
3D75B11D
BDAEE0E0
3CB56F28
3E0173CC
3C41B23C
BDBD08CF
BDD26BAF
3E2754E3
BD52A44D
BE1AA22A
BD7BB97F
BDC2F452
3E055133
3AF126C9
3E0EE0F8
3D3D5B90
BC8341D9
BD9CCFF1
BD28CB79
3CF5C051
3DCDA8C7
3D50B63E
3D3B7877
3E0E4C0B
BD95E176
3D0B7379
3D2AF912
BC2EC362
BC0B6ACD
3C6BB590
3D507F6F
BD54C9E4
3D0CCEAD
3CADDE25
3D828526
3D023ABB
BDA8E613
3D32DA45
3DEECB42
BDACDE1F
3E0A154B
BCCF0704
3D9F513F
BCACA0B8
BD449C31
BD4AE9CE
3D8BB6B6
3E1EB890
3DD82A3D
3CCDDF77
BDA8B452
3E2E273D
3D90EF9F
3D944FA8
BBCA6FFB
BCBA8146
3D2EB311
BD6EA61B
BB0A04D1
BC3C56D3
BD929328
BBE3E3C0
3C732C3D
3DDE89B2
BC121658
3CB4CAC3
3DC060A2
BDB60894
BE0ED9A5
3AF792F4
3C929E48
BC802163
3E05905B
BC21DF63
BD865987
3D938CC2
3D0E679F
3CC8432B
BD997AAB
BBEBA2E6
BD4076A0
BCF719F3
BE079963
3C60F67A
3D7112B2
3DA41397
BCACC556
3CC943E6
3DDD5C64
BD92FF4E
BD65E69C
BC8DE13A
3D72A23F
3D8377E4
BD55586C
BDC02756
3D68EAFB
3D5BFE71
3D8744F7
3B3CE477
BD942158
BD4B7351
BDEFF229
B9A4161F
BDA3B066
BE091E33
3D0578FB
3CC9885F
3DE6D10E
BE186234
3DB90319
3D81C435
BD7A8C63
BC27B8C1
3D92BEC4
BD4A5E7B
BE0312AC
3CBF5BA0
3CF1CD93
BE045303
BDB2AD65
3B821BB9
3E1FEF01
3D40AB09
BC0966DC
BCCA9789
BCCDE556
3D9E2CE8
3C4025EB
3E2ECA75
3D70BD72
3D8B56CB
3D58F62B
3CDFA928
3DC9A654
3D842AFC
3E15FA6A
3DFF0363
3CAB7EA9
3E09DFCC
3E0FC2CC
3E0837AA
3E0016CB
3E3BAB50
3DBD9FD3
3E016CF8
BCD5FFC7
B9FF3D37
3DF90201
3D517C3F
BE03AF14
BDF7E39D
3D2712CF
BB52CD42
3CC32FA0
3C48F547
3D154BEA
3DE13D18
3D573FBA
BE24CD1E
3CFE9AE6
3DC0AEC0
3D5496A8
3E2AA26E
3DED799E
3C91667F
BE035AD5
BC95B2CF
BC94A675
3D70882B
BE2EBCBE
BD46B863
3E1ACEF5
3C851543
BD9BEE06
3E0FA873
BDF89136
BE0983A6
BD3F79BB
BD3BEE60
3DABD336
BE2168CD
BCD25B62
3E3D9B31
BC327CAA
BD0D4B27
3DF81582
BD9353E1
3D89DE27
3DF5D6B9
3D122DE5
3D9F7C1F
3DA8AA45
3D1252A6
3D4D2DF9
BE3168A4
3E3AA095
BDDD03D3
BC75FA0D
BDB4B1DB
3E30723F
BC7C8C58
3D22058E
BE178F51
3D13F9C2
BDC3337A
3D91A062
3D98018B
BE0BB549
BDA7221E
3DB8A09F
3C877AAE
BCCBEDCF
3D0E3D60
BD8A9135
3CB1A5BF
BC9ED1CD
BDAA5C65
BDB6B86F
3D9B2DBE
BE09E7CE
3DCBFFAD
BD90E5D2
3D91B127
BB32D8B0
3CD04674
BDB8677B
3DAD1C01
BC5BD60A
3CA34AC8
BC486F1A
3DE7C107
BCFB9659
3C91CEAA
3D81A413
BDE383FF
BD08152D
BD27C881
BB985DAF
BDDF4146
3DD413C7
BCF12A1F
BB5764D6
3DAECA48
3DE12AFC
3C428DFA
BDD8B5FE
BE002177
BCB7C762
3DD45D4A
BDE6FECE
3D5F1B3E
3DC35248
3D7768AD
3DB66C9D
3DD9954C
3DA0C98F
3DE85889
3BF7D6A6
BDD0C300
BAD247B6
3D97D115
B9A84BE4
3CD27E72
3E0EF099
3D804583
3E1BF3EF
3DBEF9E1
3A7514BF
BCD4E9C2
BDB2998B
3E1A47F4
BC1E7D79
3D1A6C2D
BD2D7079
3DC42C31
3DE1350F
3DF83491
3C98B416
3E0F9142
BBFFADF6
BDB799E6
BDA79A73
3D95F948
BA5FEFBF
3DB308FB
BCBDFA6C
3D978861
3DE96121
BE0D8BBF
BCED5B1D
BD814943
BDC4EE39
BD83DD14
BDCD4583
3DA6AE34
3D74C913
3CD393D6
3D293C47
3E07AA5C
BE0C0030
BE07E592
3DCDE081
3E3D2E53
BD892104
3E1C5548
3E22E7B2
3E11A854
3C2CA280
3E27B3C6
3D6B6F82
3DFB3F0A
BC5545ED
3DA9D48E
3D805C1D
3C6B07A0
3DB26D67
BD0C0790
3DB95309
3DF610E9
3CCA2DCC
BD956024
3DCEF3C8
3DD93ED7
BD01311D
BD5D315E
3D877CCD
3D2CE421
BD6E8B8C
3C7D2007
3DBD9E04
BD2E0C40
3D5C0031
BCE67D27
3C9A1814
BD7A9682
3D58B4D2
BD8B7276
BDC03835
BD14082A
3DC01367
3DB13660
3DA6A777
BCEF8818
BE0FF31E
3D0308BC
BD81C9EC
3D0CF7BB
BC80B9C4
BDCD1E7B
3DE466DC
3DA85EC8
3D32943C
3DF9ED80
3DA0CD09
3D176CAE
BDBFAB5F
3C564587
BE0E89C0
BDDE863F
3D19A568
BAC38880
3D6071E5
3CA0395B
3DE32EAC
3D830915
3AAFD7F4
3DA23527
3DDC7DBB
3DBD8B90
3C8717CC
3D3D947B
3DA4A4D1
3D039444
BDB14274
BBD1F393
BD2DE8D4
BDB6E156
BD8E67E5
BE18537A
BDB4C2C3
3C9AA6EB
BDBA9984
BDF74DF2
BD64A6B1
BD5BC548
BDB6190F
BDFA0BF7
BCB03507
3DA9F8AF
BD889B3E
3E159031
3D109826
3C33960F
3DCD72AD
BDA0F7A8
3D0FDDEC
3D5F09EE
BD345470
3E144CF1
3E164860
3E0A3582
3DB13327
3CB7E123
3C9993AA
3E0D9605
3D275B6C
BDC4B6DA
3D08E11D
BD95B6D2
BDD96972
3DA41287
3D9D3194
BD12B463
3D9AC00A
3DAEF9DE
BD59C24E
3CE068FC
3E0E6BC7
BCFE7C02
BCDEAD70
3D920A58
3DF81890
3D810259
BBC98ED5
BB7B84C6
BD6364FD
BDCC35E4
BDFBBF7A
3DD30E44
BD6A8381
BCE30CAA
BDB604EF
BC7F40A8
3D6899BD
BDE2867C
3D606C6F
3E1FABCE
BCEC44A7
3E076F27
BD5803D2
3C13C712
BDBED4B0
3DFE9039
BD6454D1
BD848F93
BE1C6652
BBC37C6C
3CF4FB9A
BE0495EB
BCFF57A9
3DA0CBEC
BE22252E
BE05CF99
3BD9B0A0
3D01FD9E
3DD17360
BD3F71D3
BD0C1186
3E1C3B3A
3C94A6CB
3D13E014
3CB79E5D
3CC0A349
3BF6250B
3D88FBFC
BE1D3F54
BCF28893
BD721267
BCBA4F97
BBF35AC1
BE0D8680
BBF16588
3D6757EB
3D08AC29
BBD222E3
3E27987B
3D6B9FEF
3E0D8A70
BDDD0C54
3E1FABA4
BE0414B2
3BB87D1F
BD9C53AA
BE129E2C
BC76CAB8
3DE35A49
3DA9E29B
BE09E68C
BD89F23C
3DEFB946
BD299F89
3E1BF5B6
3DC101D3
3E0A8314
3D0BACED
BD0174A5
BD0D8CD6
BCD0382C
BC5424E6
BCC62BCE
3DB4D9AB
3DA5DFF0
3E23452D
3D4298DF
3C98846B
BD0F406A
3D97C111
3E2890F4
3CD1C84F
3D12862A
3C6BA779
3CE23C50
3D0426CB
BD87A7CE
3E120827
BD707B80
BCDCCFD5
3D347DB6
BDFA45EC
BCE34BC5
BD7D86C4
3D930491
BDF8985A
BD7E0A1C
3DFF4575
3DD0BC18
3D93E807
BDBFA28D
3ACF6833
BE03FA72
3E02130B
3E006973
BD4614C2
BC746562
BCAFA798
BDB98464
BE03BF9E
3D99FF86
3C58672A
3DC4AC1B
3D243363
BD018CF3
3D06F4AC
3D30E873
BE19FEBC
3D9AF8AA
3E1DF0F5
BD5DF925
BD05B292
BC105B22
BD1B228B
3D2C1123
3DBC584C
3DEBF7F7
3C8A3E22
BDFC7F97
3E15B588
3D6F06B1
3D54071B
3E1B7612
BDA80711
3D8D4B21
BDA05833
3E1C23B5
3DA29260
BD2D2255
3CC325EF
BD0D6D19
3CE8E343
3E08C865
3CE3D918
3DB0D5F5
BE0A23C9
3D8202BA
3E257578
BE21AC46
3CA05951
BD8EA889
3E0FD8DD
BC04B069
BCBD9E8C
3E236CBD
BD49C99D
3D80F173
3E059493
BD7370EE
3D7ED8C1
3E064BD7
3D60138E
3D8EA881
3CC342A5
3E0B1C3C
BD7965AF
3DB4E9A5
3DF94DB8
BB4081BB
3E0DF0A3
3DC1598F
3DA0C987
3DD77A4A
3DE4327E
BC99527C
3C0B7FE6
3D471494
3D8F4F49
BC7CD9D0
3D3624C5
3E10F696
BDE813AF
3CE24885
BE191B38
3E28E35F
BCBC5353
3C154C4D
BE385AC9
3DAB396F
3D14FCC4
BD6E743A
BB3269F5
BD9D4339
3DC5CEF4
BE14A35A
3E12793B
3C012544
BE3BC7D7
BD21BB09
BC9897C7
BE29FE9E
BDA9B65F
BDF6F6A2
BDBD9AF1
3A257A78
BC197F98
3D51AF98
3DCE2208
BE5843D8
BD846187
3E18109B
3E1CD5A6
3D61F055
BDB0F2FB
3DF81157
3CA06A49
BC0C340B
3D26F73B
BD9BA08A
3D0845CA
BE264F0A
BD493348
BDB1E9E4
3D9DD927
3DC55FD3
BD1AD284
3CE1FDCC
BD763B99
3DBCBC5E
BD14846F
3E2F4106
3BC6D8ED
BD3428A4
B9DCA98F
3D831684
BE2DE2DC
BD29E4D9
BDA0427F
BC0D2064
B9C8F2F9
BE42FB74
BC9B7D19
3DB3D711
3E29D52F
BE083A2F
3A0A4A9C
3C8AE9EE
BCF2BE3E
BDE134B6
3DC2007A
B9FB391C
BC6CAB44
3C9C2621
3B5F5997
3E082398
3CEA770C
BD232859
BD9C2A82
BCB3C524
3DF4F826
BC13AB79
3E05332F
3DADAAA8
BD3C2BC2
3D97E72B
BDEA462B
BD47E900
3D41065B
BDF2E052
BCD0C5A0
3C9BC3C0
BDA94F68
BDBB53FC
BDA14A13
3D38357C
BD4ED3BB
3D498F68
3D9885ED
BC6F4B5D
BBBF6C11
BD00E4BA
BD468347
BD5214F6
BA3A976B
3DBF85E9
3E0835CD
3DCFD213
BAC04EBA
3D8CBD4C
3D360154
BDB6C62F
3D625DEB
3D9A57FB
3D06739F
BD082471
3BD179DB
BB4ACCED
3DD2B24B
BD1F5644
BD07963A
BE0A0D41
BCF7BF09
3DD6EABA
3D18AF23
3D59C127
BD401C27
3D86B341
3D786201
3E1B1860
BDD380E5
3DA7EA53
BD072BB3
BD71A64E
3DB51162
BE0ABA6F
3D806F4E
3CDF28B5
BD6A9A22
BDD97B21
BD50FF04
BDD92CA8
BDDB92DD
3DB0E06D
3D9D15E3
BDDD5D92
BCBCD9D5
3CB71DA3
3DE25746
BD591D78
BDF89239
BDCE5CEA
3DCE19C6
BD241825
BBC988B5
3D759A08
3E09E8EC
BDD9C9B1
BCCB8418
BD3A4414
BC74522D
BD62407F
BD7C5BA9
BD24496E
3CCFC773
BD8585D8
3D2832DC
3E18ADD0
3D890D0D
3B8B7AC8
BD6F36D7
BC6ABEBB
BD7AFE3B
BD260B0A
3DFF5467
BD2A403B
3D55015F
3DA4CA3A
BA5EF168
BD852A79
3E048309
3DA19A12
3D437883
BD9775D6
3DB4A34C
BD1DAA32
BE10F0C4
3CF01C78
BC55CEF4
BD1E1AC5
3CC0D0D0
BDE0A570
BD07B279
3CB27050
3D631495
3D0B5800
BCC86D7D
3CA1F84D
3E2E3415
3CC92CA4
3DB84094
3D96D8A7
BE0C14F0
BBB2B51F
3C4CC372
BD827E26
BE2073BF
3D72CEFD
3D5CA29B
3CEED5CC
BD620C6D
BC878596
3E27DA8C
BD830685
BDA28DFE
3D89C82E
BD597349
BD690A4D
BCA9DC88
3E10504E
BCE64BAF
BD0BF996
BCEE51D2
BCF0D957
3CDCE34B
BCBF5ED0
3DB4F36F
BD1B3439
BD278AB9
BDB11DF6
3D4CE4A5
BC6F024C
BDE53942
3DD184B2
BD9B0B86
3CCC4187
BD86FDB0
BB779F89
3D8A3115
3E1953B6
3CA4E1BC
3E2CEE70
BDE46793
BDC7C7C1
3DF38F8F
BDA6F4B1
3CA82863
BD24149F
3CA4E2C9
BB12280B
BDB1FB6C
3CAC430A
3CBC6E30
3DBABC6E
3D9FF613
BD9B1EF9
3E01D1D9
BD8F3644
3E0E16AE
3DE34F1A
BD1E3A5B
BB51BEFA
BDBE28B4
BDA1FC20
BDAE6D47
BD30F764
BDD67568
3DF486A2
BD8AA776
BD96C727
BD58C10F
3C964CD3
BD47033A
BDB2A87C
BDE0F678
BE1645EA
BC1E7A69
3CEE097E
BDB671D4
BE11595F
3DB9ABC7
3D28B967
3D752531
3DD3C576
3C207FF2
BE093943
3E037F02
BCDF9A2F
BD5859D6
BD642490
BD858C42
BD3B7B23
BB6F7C7A
BD50645F
BDE9DEDE
BDA0C345
BD0B0821
3DB6643F
BE030E6A
3CD97A85
BDA880BC
3C80F54E
3D6C5D3E
3CFBCA00
BB15DD22
BBF555D8
BDB101E0
3DE6BAAD
3DBB0381
3D51E3D0
BDC17CE7
3E1205FA
BD5EDC7A
BD97A3AC
3D2FBA32
BE13870A
3CE47AF4
3D22E9B2
BD8D3DBD
BDF55D22
3CB08005
3D4634CB
3D830022
3DD537C8
3DA1A67E
BD2193D4
BC5B8BB7
BCA84E63
3CD088B4
3D5EE9DB
BD681C71
BD9046B1
3DA2B5AB
3DD47835
3D5BFB5C
3D4C98E0
3E01955C
BD14ACDB
3D2B0E31
BD0AF0BF
3DA6CE8A
BD8D78D8
BD3AEB79
3D8F58F4
3D115154
3D99F4C3
3D84A3AB
BDE48394
BD2FB0ED
3C1E795D
BDE82890
3DE224C7
3D92408D
BDBFD534
3E0A6BA4
3E07975A
BDD4DE77
BA287A32
3DD0A034
3DEF167B
BD2F6449
BD85F137
BCCBD236
3DCC74D8
BDA97CD5
BDD04EC0
3C1059D5
3D363EC9
BDC6B10E
BD4E6724
BDC89D61
3DAD437C
BD7C0C86
3C9F2A1D
3DD271BE
3DCCC3D7
3D117B9B
BE21EBDA
BDD6BA24
3D553178
BDAC3ACC
BD9CD725
BD8527C6
BD07C0BF
3E00B84F
BD2CF3FC
3DF06A96
3DC13FCB
3D59B995
3D109648
3DE55999
3DBC6EB5
3DB8BC07
3C910520
3DB010AD
BD551FDA
BDD35082
BDB14935
BE0E5A48
BDBD96A7
3C40E457
BDB98767
BDBD275A
3D35C0FA
BCF3B2D5
3CA0872F
BB49DFDD
3DAE7931
BDC00EA3
BD6A0438
3DAAC3EB
3DDB2C1F
3BA5F55D
3CD2B5B5
BD2CD937
BC175033
BD1FC09D
3D7E4617
3E07647E
BCDAD8E4
BD1220DA
BD8D5537
3E006781
BCB30F97
BCBBF78D
3DFA5127
3D52C4B6
BD97017B
BDC30CDB
3DBD4D63
BDDCC03D
3D8B7A79
3CAEF876
BDFBAF51
3DAE58EC
3CA31DD7
3D5D16C2
BD1316BB
3C730419
BD8EEC27
3E266FF0
BCF64201
3DD48445
3DE02B1F
3E231F1B
3BE7A124
BD449622
3DDDF813
3CF86384
3C0A2695
BD3FBB6A
3C5B8AEB
3E1FF3E3
3D62DDF1
3DDBDD80
3E34BE09
3DD6BB35
BD0150A0
3DDB6BF6
3DC47390
3E198C1F
BD3B0D75
BCD9E8DA
3D917F4F
BCE1B903
3E0B99B5
3E38DA3A
BD84948D
3A6FD337
3D5B725F
BDB7B67C
3DCAEA40
BD1F2158
BCF44323
3E249CF2
3CF0B956
BC97777B
BD6C1A5D
BDF44102
BDD7AF59
BB185577
BDBD5AA4
3CBF3F1B
BD355F83
BC49B66D
BC92FDA9
3C8B4C34
3DCF5BEF
BDA98E0B
BE0F3B86
BE22F9CD
BDAC663C
3DFF30F5
BC901E05
BE21389E
3DBBC2F0
3CE43076
3DC200C4
3DB1B7A6
BD7BBC3C
3DF429FD
BDD9A7CC
3DCFA71F
BD8C13C9
3E0426B9
3BD1FDB9
BE018772
BA52D3A2
3DA942F3
3DF63B8D
BE0312BF
3DCEC4E4
BD948806
3E0A8F40
BC3C9740
3E0CC7C3
BD9D72E4
3D3D503D
BE19384A
BDE349C1
3D4CD8FC
BD466A35
BE1A04B4
3DDF4392
BD95E475
BD632A5F
BDF0B28C
BDB3C560
3DB6B0D7
3D20F012
BC3B1CD7
3D214179
3C3842DD
3D1D96D4
3D7CC6D3
BD1BF1B3
BD2E3EEA
BD82AF6A
BD812E6D
3DB4E181
BDA12B35
3DB9D911
3DA20545
BDFD6136
3DD7DD8A
BD854880
3D60C9D4
3C799126
3AFFCE82
3D885BE2
BD1EA5D0
BDE98192
BDC7FC4F
3C69F2AD
BD854A6A
BDAFC65D
3DB10031
3D81BB3E
BD911406
3D5001AD
BDBDF885
BCCDA489
3D201839
3DF89C6D
3C3F5164
3DE6E533
BD731CD8
3DADF782
3D2F90CC
BC8B1C4E
BE02F5B2
BDCD5098
3DC9CF56
3D36C26C
3D5C24CC
BA239BFC
3D783D56
BBCDE5A7
3D392634
3C49ACC7
3D1A3787
3D575879
BE03C6A7
3D38656C
BD5E0DE8
BD35B03B
BDB3E564
3E0B1D6B
3CF977D6
3DE65D79
3E05BE0B
BD85B219
3DF2A4E2
3C705756
3D6ACFE5
3DA161C2
BD9213D6
3D8FBD9B
BD11E61F
3D6BB210
BDE2678C
BDE36062
BE0C7598
3DB36B53
3DD6F1D2
BD3E7564
3DEAE7F8
3D7EB39F
BC569F1E
BB18A7AC
3DA2D617
BD57010E
3D566F4B
BA3842D2
3C0A9961
BDD7E8B1
BCE40D26
BDCA3FBA
BD68F280
3D7A7B3E
BD09720C
BCEF73BB
BDC67931
3DA53DF8
BD89BDAC
BD370796
BD8F415E
3D778A8B
BD9CCB11
3BCC820F
3CF12F6D
3DB8BC31
3D4E5997
BDA942DD
BD5CB7C1
3DF16A90
3E0812E4
BDA44031
BDBFE7CF
3D34EB04
3D2BB627
3D8C74F5
3D8B2D14
BD86E23E
3D341508
BD2CCB45
BDF229C1
BE0906D0
3C8B0511
BCF0FB1A
3D41BA3D
3DB03863
3CF7621C
BDF6CD24
BD3B8C60
3D1B2F13
3CA927BC
BD049599
3DBA51D8
BDBB3478
3D9F5223
BCD6FE84
BDF255E5
BD575267
3C9391B8
BD7FE60A
BD5BC5E9
3CD93276
3D11B2F6
3D45C679
3D84A34B
BD044F25
BD96D707
3C3D1CA1
BDFDE48E
3E1A2FD8
3C9B7BED
3DF16F66
3D4CD281
BD7CB54D
BD20C43E
3D885F45
3D77167F
BDAD30A8
BD73015F
3CD57A80
3D26A6F1
BDEDF178
3D826DEA
3CF3D854
BD2B66C9
3BF00206
BDE95B07
3CAE334F
BE1DA7DF
3DFDB701
BCBB89E9
3C2F36E5
BDE64E5A
BCE997F4
BBC2E065
3E2F1101
BD9C39A3
BCA5383E
BD2A2DC4
BB5D89DE
3CEB0BA7
3E18E193
BD151508
BDA27DDF
BCC0BED7
3D864382
3C3B8E76
3DD04C9F
3D98D0B9
3DE4A6B5
BDCBBF21
BC4069DD
3DAE436B
3DA38CEB
BD892364
BBC13D78
BCE86C3B
BD99A1BE
BDC95205
3DCB86DF
3B761AFA
BC6F2984
3D14FCCC
BDDB9095
3C1B1AAE
BDD6A4BE
BDD5324F
BD686854
BD965CC2
BDCF0534
BD57027E
BDBC6683
3DCEB223
BD6E0198
3CC405AE
BDC333CA
3D977D0C
BDBAE6E4
BDA33A20
3E330CBE
3E0AA169
BD47B9A0
BDADA66B
BD553AD8
3D52CF70
3D469B78
BDA55EC3
BD51890A
3C19BC6A
BD9700DE
BD87C095
BD1F21AC
BCF17D56
3D8F1DB8
BD925EEE
3DC93C41
3CF53E86
BDD877FA
3D86E40C
BD1A1659
3D06E051
3D3525E7
BD146290
3A16AED9
3D938628
BC6297A5
3DB9457E
3E131937
BDBDCD62
BD553810
3C27B34D
BD94B553
3D510BAC
BDAF66EF
3BF8A8F4
3D1C8438
3CF57385
3D477326
3BAB27CC
3CAB2B22
BD929D4C
BB9DF777
BDC66332
3D248D08
BD804D52
3D43EA40
3DCB113B
BD0784FC
BDA2B766
BDF7BD81
3BF13953
3C5DB451
BCFE94F1
BD275BFA
3DE7F8E5
BDB54A22
3D39521C
BD14395B
BD196F1F
3D807269
3D7BA804
3E1DC29F
3E06CE09
3DDC8504
3D8143A9
3E10DA3F
3C2C382D
3E0F38A6
3C5BF554
3E0A1ED7
3D8C5B94
3C25874E
3DBB619D
3D646D7B
3D675897
3D8468F8
3DD782C2
B828A729
3DCBC550
BBFD4260
BDB937CD
BD3694DA
3DA823F9
3C9324C0
BDE6BEF9
BE1D9165
3D27C523
3DB81165
3D4A85FB
3E0698F7
BE085CCE
BE40C6E0
3C67D897
BD952FF4
3C5DAFA9
BDCA338F
3E249701
BE205381
BD55724B
BD941580
3DADADFB
BDD0D02C
BD6A504B
BD4FABED
3CE4FA86
BDC21BD1
BDB55CE3
BD4F4D65
BDE6AD1A
BDDF8578
3DBEB8A4
3C8A1F5E
3D3FB738
3D4F52C4
3D6DBA91
BBE169FD
3D7A8DB8
3D291E75
3DFF38FA
BD5311EE
BD964BA3
3CDB3CFD
3CEB8854
BCF3DA52
3D622F12
BB54936B
3DEB5DF5
BCFE6668
BDF2F2DB
BE1AED50
BE0975C6
BC527C59
3DD64A71
3DAE41E3
3CF0E927
BD25D8AA
3C27A0B9
3D8C61FD
BDD007BD
BD4510F4
3CABDED1
3E177DDE
3E260BEF
BD816915
3D821E0A
3DC8057B
3CD3EDDE
BC995D64
3DD7E66E
3DFCCA5B
BDA0D19E
3DE0011B
3D65A315
39D84CDE
3DE5AAB4
3D64D458
3C99EF9B
3D31620D
3D5EC614
BDCCB4A4
BDEBE4DF
BE0104C2
BC250F44
3D41598F
3D13D681
BD2648ED
3D516D20
BDE1E955
3C86FCB4
3CF96339
3DFCD7CF
3BCA28D9
BD66BC5F
3E0DAE77
3DBEACA8
BBAFAE99
BD1D4749
3CFBBF4E
BDAAE795
BD7F56C8
3D9D47B7
BE1FE0AC
BDEB0AF5
3DBB1DF7
3D91D2FE
3DF304DD
BCA70AEC
BDC12B0C
BD3C558E
3CF201FB
BD2434B6
3BD5EBDA
BE1099FE
3DB3805B
BDA779BC
3D5B681E
BC955384
3C2CF170
BCC14941
3CE6F242
BD8E7FA0
3B8CDD1E
3E0E2F51
BE064136
BDF805EF
BD977B6A
3DF7A478
3D844D98
BD92EA81
3DCF6FF4
3E23CBF7
3D92E98A
BC9D7567
3D798547
3E262BD2
BDCEB669
3D7892CC
BCED2CB4
3C8D46B5
BDB8043C
BDAAEF1A
BE04C85A
BDD53084
BCCB40C1
3BA17BD1
3D1D3997
3CD03095
3DF95DA7
BDAD0F1D
3C22FF69
BC773A49
3CEA13DA
BD5A3DA9
3AAABC57
BB241C2A
3D4B46D3
BDA6A445
BD00D418
BD550FD5
3DBDC21B
3E162A7A
3DAF9A4E
3DD26F95
3D0F9B66
3DA9254D
BDA14510
3DB2B0C9
BCA025F0
3DDF077B
3D784E12
3E0FC325
3E18D75D
3D8EA3B7
3DB2AB79
BCAF47DC
3C11C092
3E1758B8
BB03890C
3DF5667F
3C5454D6
BC90C49E
3CFC6B8B
3DD31F4E
BDA8FCE3
3DBBA981
BD14CBED
BB893ABC
3D878795
BDEE92C9
BDE75BE5
BD69E59C
3DE1324B
BD9E201C
3D8F54EF
BD496E89
3D414C69
BB8E585D
3DD14267
BE038625
3D568FB1
3BA373CE
3C5111CB
3CF8F88A
3D5B82F6
3CC9152D
3DBAC80E
3E2204E4
BD1F3DB0
BD4DE0DE
3D1588B6
BD5785BE
3E1C3DB0
BDCAD269
BE25F4A8
3DAFB88E
BD1628A9
3DA223C5
3D67A119
3DC8A045
3DD3DF16
BE067941
BD7702BE
3DD07D5B
BD7119B1
3D025197
3AF013A4
3E2DA74C
3DCD9525
3C980AD4
BD8AB6DD
3DCE53ED
3DDF4AF5
3CB47AD7
3D9A60CF
3D85759A
3DF9E369
BDFA3D71
3C36D7EE
3D151DCC
BDBE4BB4
BE42D24D
3D07FA58
BDBFB5C9
3DDF857D
BD4ABFAC
BDE450F8
3CFF0320
BCA83FEA
BDF3F1DB
BD848C59
BD5F16D4
3B9AEBBF
3D8D2D4A
BD45DDD8
BC66B87C
BD80BAD6
BDE618F1
3DF566D3
3DA2D396
BD85CEDF
3DF3F0A5
3D5ED48A
BBEE00FA
BCCB673C
3D491AD9
3CEB63D1
3E01ECBE
3D1825CE
BD5C2067
3E0375C9
3D4436FC
BCE35B4F
3E04EE62
3C0D89AB
3E1163AF
BD6820A8
3C843EBF
3DC63AEE
BC37AD2B
3DF81260
BDCAAECF
BD45783D
BB788131
3CA9F983
3DD60889
BD337F2E
3D078929
BDD37488
BDA20DA7
3D9DFA47
BD6C1E1E
BD0D55CC
3DB54599
BD0F8B26
BD0239D7
3D865892
3BDCE9D0
BE20C014
3D509338
3D87B7A1
BDD422B3
BC1C8649
BD22B8CD
3E2AA8AC
3CEFAEEF
BD83F3DB
3DF20633
3D4CF3D9
BDB1D839
3D9F809E
3E0EE585
3E14E8CB
BD6D2750
3ABEC2C9
BBA951B3
BBF78F6E
BCC3720B
BC8E54AC
BA69FF63
BD05E827
3E060FA8
BE2B7172
3D1B63BE
BD80E2DB
BE2F8CA5
BD98A457
3B5F5794
BD095414
BE0043FD
3E0FF76A
BDBBC8F6
3D8AA6DC
3DA3FE77
3E350555
BE0E15D3
3DBF08AB
BE100101
BD7473B8
BD0612DF
BDCCAF0F
3AFFBEBD
BD2063C0
BC9DB5E3
BD0D70E7
3E1F029D
BD80BCD3
3BAFBFB6
3DCCB160
BD443CA6
BD789123
3E2E5242
3D9D7344
3E2C66C7
BC0A4CC0
3CDF564C
BCC62AA7
3B04A81B
BBAA0969
3E2974FF
3D90EE37
3D21514C
3DEEDC78
3DE12213
3D295DCA
3DE0D7BC
3D977767
3D287E5C
BC5A7F32
3E05FAE1
3D81D51E
BC31C7D9
BD1B9EBF
BE209BF4
3D17978E
BC563389
3BDF5423
3D847D29
BC15E357
BD856BE1
3BDA0316
BCDBABA8
BC1628F7
3B83CDEB
3D0F01F9
3DE617CB
BE295973
BDA9A88F
3BFC051F
BC022DED
3D9E1A4B
3E0436F9
BDCA6791
3DA5DE4A
3D700404
BD38D10D
3DD317EC
3D3AB510
3C1D1EF5
3DF00D9B
BC4CF303
BDA5C5B5
3D7DB909
3DD7A020
3E26F2E3
BE0ACB68
BDAC6589
3DF3D067
3C0CE0EF
3D04DA8D
3D11642B
BD194BEC
BD14F06A
3C0A1E7C
BCD8C2A4
BD91C8A4
3DFE29EF
BD17EAF3
BE0C4478
BD923E42
3D1329B6
3D125D3D
3D314DA5
3DA0D1BC
3CCD29AF
BDF4B3D5
3E23A483
BC8BC419
3DC8F85E
3D6D39E8
3DC5ECB6
3E200768
BD94D2C2
BDB2D7E7
3E25EC06
3E27159A
BDA29182
3D569223
BCCC2A86
BD771E37
3DC2848D
3DACE29B
3E178493
3DD66562
BD437F9F
3C4F6C85
3DA29CFA
BD875D09
3DDCC195
3DC6F1B0
3D083FC2
BD7E216E
BD10AAC8
3E15144A
3DF49E2B
3DCFE4E8
3E010D23
3D521CBB
BD6E1DFB
BCCCD678
3D2874DE
BD82AA58
BD8AC511
BDC8D67B
3D9D260F
BDF80721
3D6B3644
BE120D91
BC6DD550
3CF61A74
BDA6B641
BD8BBE6D
BD6AD00D
BC56F01C
3CB42648
BDED2F7A
3D3B0E2E
3C861137
3D5B6AF5
3CF3E78E
3D1B4FFA
3AB5F194
BDFC8FD9
BA84497B
BE1DB235
BE23F06B
BD977CB4
BC8D6E7E
3DF04977
3DA6533D
BD3C3B7D
3E101880
BDFDE914
BDEDBB43
3DE6BE02
3D8BD78C
3DE0A535
BE0B5591
3D70DF76
3E1E6CA3
3DCEF452
3D3708CE
3CA0A871
BD482C47
3D2EC39D
3D9D89DA
BE1E93EC
3E1B8493
3E1FB54D
BCB07690
3CFA9440
BC794506
BCAA4E5D
3DBB9E61
3E1669AB
3DC5E9F0
BBD99F84
BD224341
3D9F56F0
3D06F6E7
3E1E6B31
BC030731
3CF28C5F
3D48720A
BD304852
BDAECCAF
BDA67661
BCD0F0D4
BDE4541F
BE087DCB
BD8E4069
BB84BDD5
BD9964C3
BCD39C0F
3DC2FF64
BDC6C386
3D8AE8D2
BD13DBB5
3BB4C5C5
3D09F12D
BCE12402
3D137C1E
BDB78CA5
BE0264A7
BDAFF331
3D65AA8A
3D8E4947
3D8BD825
BD987361
BD157088
3D85BFA1
BDE03C48
BDAEE0A2
BD5E2E64
3DA8E4CD
3D7CE77C
BC73C9E7
BDB57C76
3DB2D349
BDB18244
BA6B36C5
3D804280
3D0C1255
3C1F4EA5
BE1DA736
BD96097A
3B1DD797
BD948207
3DB49D45
3BC73305
3DFEB0F8
3E13366A
3D793F31
3DE54CD9
BC4C50C6
3DD15B79
BD88F6CE
3D3493C3
3D20011F
3A8099EE
BDD94B06
BD303D4F
BCEFA5F5
3DDCDC9F
BD52E149
BD98C1A7
3E06BDAE
BCC47149
BD291035
3CA6F37A
3DBEDB37
3DF9716E
3D8DCCD5
BD97C4D3
3D78F10D
3B330E0A
BDFA0F45
3D2654E9
BD657327
3D53F706
3E022B96
BDF6C2F3
3D42CEAC
3DBD50D4
BCDA8D5F
BD91E3CF
3E051F05
BCC0BAFB
3D7BF71C
BD9EF882
3BDB47CF
3DA7AA0B
BDC10D62
BE0AAFF8
BBE6F1BC
BD1B99F7
BA8DEE15
3C7C9D2A
BD222803
3C4B5B33
3D0A109D
BD7F4799
BD22AF0C
BCE88469
BC9AC3EB
3D53BA3C
3DCA958F
3D201EBC
BD8A9764
3D429D4C
BC9195C4
BAA42EF4
BD905D78
3DE0ED5B
3D18181F
BD21CF91
3DA64FC2
3D97125E
3D12F2BE
BD896511
3CA523A6
3DDBD25D
BDBEDA09
BC446143
3DE6741E
3E221B29
BD3EFAB5
BD27A37D
BD06D8CF
BDCDD205
3DF9AB88
3D1F2D90
3DAC9C93
BCBC894E
BD15481E
3DAE8EA1
BC884147
BD365B36
BCC738C4
BC5BB51D
BD2FC705
BDA66B2A
3CB47EF3
BCB3F2E1
BDB84E21
3D1789FA
3D588FD1
3E13C261
BC0B333A
3D36CEAC
BDBA4CF1
BB6D01A1
BD9739E4
BC0E20C0
BDD60076
BCCC5350
3D258085
BDC5AEBE
BD22BD34
BD8E01C2
BD82A28D
3DEDAA34
BD3FC202
3DEBE434
BDA59069
3D98B064
3D3D2BFD
3CA74D71
3CBE159A
BDD19CA4
3DA70B0D
BD3BF483
3D7EE32D
3D192406
3D8F475A
3B013097
BC0CA489
BBB23649
3C9B24CA
BD3223AC
3DD54257
BBAF404A
BDD6073D
BD3A5B05
3D18A49F
3D6F7E35
BD961E9D
3DF4BE5A
BC714D1F
3CDFD0B6
BD00BAC3
BDA79363
3DBA95BE
BD8D593C
3D84F35B
3DE4750D
3CF819D8
BB4E7AA2
BDC489D7
3B8EA3DD
3D285333
BD8798A3
BDCD9171
3B978D50
BD6236EC
BDDAFAF8
BC63C3BF
3D897E95
BD6C96C4
3DD9464A
3DFB8983
BCD0494E
3CE76F76
BD2C93BF
BDA062C5
BDC58FCA
BA94C29A
BC1560A5
3CACA9A1
3DE2F2EC
BDF2D53E
3D2714FD
BD491692
BE050813
3C628CC8
3D9390B2
BDC1D4B9
3D1B0F50
BCC3F88D
3DDDC809
BD1F3AE4
BC63A719
BBDFAEFD
3D949629
BCA3B06E
3D7A4EC3
3DA05970
BDC6EC44
3DD5CF7F
3DBB0DD3
BDC9A382
BE07A918
BDBABCC9
BD6D859A
3DD646CD
BBB36F99
BCCD961B
3DE33AC9
BA2666B2
3C8852C5
3DF3663B
3D799177
BD0B9A55
BD769BEE
3D150A2E
BC4B8849
BD6D31FA
3CD7315A
BD684D8F
3D4B8AD6
BD302054
BDC7A201
BD4277BC
3DAF988E
3AC3C28D
BE255EB5
3CCE24CC
BC70BADE
BD32D4A4
3DD8ED42
3D6921CA
BD410213
BD94CB2E
BD22F9F3
BD3EE812
BDA1D471
BDA6C0A4
BE137BC6
3D8856EF
BCFD026A
BE0152EE
3DCA9B8D
BD6A1E19
3DC09EBC
BC44EFF4
3E2795AF
3DC84CE6
3E08CA48
3ADC768E
BD3F6AF5
3D3BA072
3D26ABBB
3D839E79
3C40618F
3E021475
BD17F0C5
3CB063E6
3E0FCE05
BC9BC09B
3C30AB64
3D4FD154
3E0D8BCD
3DD82A24
3C1752ED
3E17BDF5
BC9539E3
3D54C867
3DBDC099
3DC5D030
BD3FD119
3D8B1997
3DAA72B7
3DFC03C0
3CD1630F
BE04DEC6
BD12C361
3A4B5904
3D8243D2
3DBD7C6E
3D273291
3CD7778B
3C549C85
3B8D9EBA
BE03EF3C
3D07D96B
BD5C2367
BDAA94AE
3B328828
BD837207
3D970664
BDCBC285
BCA8A7EF
3D546DDE
3D296806
BDC3E2F6
BE46E35C
BC00D2C4
BE29C379
BE605225
3DE58C86
3D987E1D
BD835203
BDBC6FE9
BDAD670C
B88A1E51
BD84C6DF
BD706FB2
3E0BB829
3C7B149E
3DBF916D
3D196E8C
BDA29BDC
BE015313
BCDFAE00
3D8921F8
BD15371F
3D92BA5E
3DAF0B38
BCFBC79C
BE154A95
BD2691F8
3D90A768
BC484A72
BC74F307
BDA31BA5
BC1B8BD7
BC4A79B6
BDB0096B
3D820945
BDC33AC8
3D1DD7D5
BD9948F2
BD1D0435
BC78AE7D
3D065AB8
BC86289E
BDFB1F35
BD5F9EA1
3DB6F65B
BD6F6A0B
BD4023E7
3E099936
3D967168
BD2FBBAA
3DFDCC74
BC402DAD
3D9E3C3D
3E3647EB
3DD58846
3E1D5A28
3E173CE2
3CDFB1DC
3D81475E
3C568C33
3DC4E1FE
3DBF4D51
3C92CCE7
BCDFB9DF
3CE1876A
3AAD70E7
BD11689B
3DAB16B8
BD6C55B9
3DB39946
3DDC0C44
BD54A086
BD87F11A
BE27999E
BD320E93
3E1BC95E
3D26D585
BD513245
BD79D2AA
3D5213B9
BBC1B699
3CB1A081
BE33DAC9
BB155490
BE277E2B
3D494360
BC835AD9
3CB2D8CB
3DA7CF7B
3CF3A56F
BE2E8553
3D163A8C
BB9C80EA
BD88D8BF
3DB4E55D
BDF1E2A5
BE137A0E
3DC85667
3D906015
3D890B7E
3DACB3D3
3C3A0EDA
3E29E176
3D65776B
BD6DD32F
3CAE725F
BCA7D92D
3D1AEEF4
3D61CC33
3E1A9BC8
3D89B14E
3D74DCB6
BE325508
BD880459
3E04D903
BD574224
BE06213E
BE0A42B4
BD1DCFB4
3C65412D
BBA4B7F0
BD4011CB
3CB0126C
3AE14EBA
3DC6CD36
BD5AD3A6
BC396689
BD00D654
BD2B1EB2
38F42BE1
3D791DD3
3D3EB6FA
3E2C6BAF
3DD330B6
BDBD1169
3C72A98B
3D880555
3D84D3F2
3D8F6364
3D6EEE98
3DE35531
3C80F289
3D90DDCF
3D3E9577
3DC038C0
3E207908
BD85DC7F
3E3C1ECB
3C8EAD0C
BD28980C
BCFB67EB
3D22A5B5
3C6C93C7
3D1F0B71
3E05AF5F
3E3601E3
3E27E0B6
3BA1967E
BD2D3916
BD9B4895
3E2B74B8
3E119327
BDAE2E42
BD4F8264
BE520B8B
3D6C8829
3CF7094C
3CBA12AB
BCBE6EFC
3DA28392
BE1A216C
BB98E7D8
BA86CFBD
BE1FF73F
3D8072E4
3C9872D8
BCDE0A32
3DF3AF73
BD8D3FC3
BD8E4EB2
3D85005A
3DCC9F8F
3D3D60B6
BD5003FC
3D7057D7
3CB3F464
3DCE7F3F
BE072BD1
BA912023
3D54B6B4
BD36CEAC
3D999475
3DF5A1EB
BD82855D
3D5D6B40
3D5E9019
BC6DD403
3D254A1C
BDCC3E50
3D4CF99E
3DA9620D
BCFDDD9C
BE3345CC
3E1832C6
BBC83A2B
BDBA4932
3DEE5C99
BD36BBBC
BDA94112
BD26592D
BB9A0A6D
BDED9A46
BE06FF3F
BDB3349B
BD6C3807
3D6F1F0F
BD4DE060
BE0AAF46
3DD0D5E3
3CCCE073
BCE205F4
BD87857C
3DBC2A99
BD4F0625
3E25A8C0
3E3DD7B8
BDA59FFA
BE01C6A7
BE0DB2F4
BE06FBD0
BD157CA9
3D9A352D
3DBFCE7A
3D205C39
3D9C7E94
BD9A3457
3DBCCC6F
BE04E99B
3DB0524C
3DBF2AF1
3D85D81E
3D82749F
BE15093E
BDE01C65
3D83D9FF
3D306D05
BB677240
3D33E304
BD12C671
3D114527
BD2318B9
3DBF173F
BD5E22C6
BDD2B818
BC99BB73
3E037DCB
3E0AE0F2
3D11F1D5
3C182982
3D044F1D
3D3E2697
3D7A88A5
BD1DF782
3CB40AAF
BDBC3F5D
BD172AC4
BCFE05E0
3D42A6F9
3BBD0B8F
3CD6005D
BD7C5BB3
3DD10652
3D780F6B
BCE45A42
BDABD157
3C899A1D
BD31D428
3CC8DFCE
BDA12132
3CCD81B3
BD6E2E5C
BDE5B7D4
3CA02936
BDCDEF78
BDB0B49D
3CCE8E48
BE0D0188
BD0B6162
3D27D5BA
3D43B287
BDD0FF4F
3DC781B3
BDBB6BC1
3C99534E
3D8D5AF1
3D73B884
3DB76B55
3DF9FE6A
BBFC806F
3D1DCDBC
BD445E69
BDB9E4A4
BC4F48DE
3D8DC637
3DBCD67E
BC5B4043
BC9013C9
3D795168
BD912052
BD8C44DD
3D23E65C
3DCD1CC4
BBC56DB3
BE01A38A
3D2BEBCC
3D875587
3BEBBE2A
3D9EA8A9
3C0697F5
3D4C4248
3D8AFA03
3DA1A4BF
3DF4E52D
3DE7C76E
3D2812DC
BE055973
BDF127F1
BDE25A1C
3B36C8D4
BD64E374
BE14247B
3D76F23D
BB8FC5B0
3DAA2064
BD2A44E0
3D9C17CF
BD83A876
BDEB89BF
BD838CC9
BD330596
BD9ACD04
3DE8F8F3
BCC48C31
3BD9BE37
3DB74A14
BCEF4248
BDE82F17
3DC75C93
3DD0BFF1
3DD0F885
BE08F814
BC83BC98
3D6509FD
3AE3B51C
3CC26489
3DACFFC3
BDFBFAE0
BD9CF45D
3DA4E415
BE060A68
3DFF4DBF
392EEC67
BDE65F69
3AAFD1EA
3D381D99
3D8A7B7C
BDD02C80
3D700000
BDD91ACE
3CCD9ADE
3E08B397
BB4A63E7
3DFE41A4
3CA61471
BD632503
BD0DA67F
3B108D01
3D3652EB
3D316EBD
3D816D77
3E0CFA52
BD3223EA
BCC50FC4
BD53794C
BBB58431
BD5B2BF3
BDB247E1
3DE18165
BDF494E7
3DF05BE2
3CE2286F
3D731C22
3D20D56B
3DA61542
3C98025B
BDA1CB78
BC167542
3DAB9F17
BE0498EA
3DF8AF89
3D8092D9
BCF24049
3D95BCA9
BDD6C62B
BD8B1CA5
BDF557CF
BD581BE3
BDD712C7
3D0E6ACA
BD64F4AC
BD832C33
3DC1E384
BD86A0E2
3E10B0FA
BBBA6F3D
BC17BFDA
BB06D9A3
3BD8669E
3DE3F6D5
3DD0A5A3
3E0C353B
BDA6A562
BD08EFAE
3DE07DFB
BD5F7E55
BC9262BE
BCDBEA8C
3DBDF1BA
BD8D4B54
BCC70DE1
BC82C0FB
BD6EE5A4
3DD3A104
BD9BF246
3CA0B53C
3CD10CA2
BB815392
BD019AF5
3D92AE9C
BE228393
3DC17DB4
BDB8C904
BBDCFE5E
BD9A0120
BDE8EE96
3CF48523
3E20CBAD
3E4AB2E5
3D1B32A1
BE040E9C
BE2AA188
3BD53A85
BC0CCB4A
BC6AEB7C
3D11DFEF
BE072840
3D1CD71E
3CD7FF45
BE156807
BD03B9A9
BDA18883
BE44A6F1
3CD2DAFE
3BD3EF81
BCD64FC3
3D518F9A
BDF51CC2
BE43C485
BCEAD9F3
3E1DBD19
BC45749F
BD9F17E0
BCC7C1CB
3D590001
BD581822
BCEBCE8B
3CB10C3C
3E0E1689
BE1761E8
BCA82045
BE4486BB
BC52B809
3E05E79A
3A4C265F
3BA47AF4
3D7FBC3B
3D2D8465
3D6C88E5
3E2DAA79
BC1F07EE
3E0DF002
3BDBF762
BD959AEF
BDCF4DE5
3D385FA3
3C232346
BDED2D3A
3D5EDC39
BCE3CD55
BE2164DF
BD2BD033
3D996190
BE155346
BE0ABCD1
BCF15C79
3C97FD78
3C50B6BC
BDB1A464
BDCFA8EA
BDB92AFA
3DB1012C
BD22F7CF
BDB8AB78
3DBB021C
3D084381
BD338A46
3D62DD37
BC8B095E
3DF44213
3D2EBE01
3D668B4D
BDC65D46
BD187AEE
3CBF1981
3DA38623
BD86A7B1
3D7B922D
BE0C26CD
BDF6347E
3C09E902
3D9DA1CF
3DE07E01
BE05E1BE
3DD95E3B
3DECF817
BE004689
3C8CD3A3
3D19A208
BDC0C2E7
3C9F2D07
BC35E641
BCC501DD
BDC77E8F
BC696ECF
BDD407B8
BD925F5A
3C50E5A1
BDA73879
3D5A7C63
3DE1AD5E
BCB71779
BD8E6C1F
BBA19AC5
3D1D660D
3C1E3CC1
BD5EE4E8
3DD67640
BCDC8ADB
3C96B950
BDB9DBBA
3D361D9E
BDAD5DDC
3D2CC992
3D37B988
BC974389
BDD6D6F4
3C8DED64
BD4FE4AF
BE268CE2
3CA07A89
BDCB60EE
BDF83503
3CBA9F23
3D8D4702
3DD65F31
BAEDEC57
BBAB67E3
BDC4D95B
3DCDEABC
3CDF0AB2
3DC950F8
3CC1EDD6
3D6EF673
3C313DFB
BD61F07E
3D874FDE
3DCA8668
BDD3398F
BD860425
3C78C25F
BD9B36C7
3D9E5360
BC75603F
BD8ABF2B
3CD5CFD6
3C2D63F1
3E1CC4FB
3A80BDD6
3E4C6452
BC917213
3DA9B0E0
3DAC6B21
3E19050C
BD1D57F5
3E362B22
3DD77B74
3D9BEAC5
3C85A71E
3E3A7947
3DE41B16
3E1ADBFA
3E0E1A13
3DEC29C0
BC30DAF4
3E1C0BA3
3E0A698F
3DF20237
3D5BA740
3E04395E
3E13B7A8
3E1337CA
3C28C485
3C71CBEA
BE171816
3DA03D43
BD9B3879
3CE59C2C
3E472F4D
3B4360E8
BDFCCCC6
BC1AD1E8
3DA0B3BD
3DFECA9A
3BEFBDD3
3CBD9A95
3D7A0B2F
BD86C0CA
BC927828
3E12A0DC
3C95EC56
BCAD3D1A
BCA135C5
BAD1E362
BD6267A9
BE3446C1
BD23C9DF
3E2EDC01
BE2E7686
BCBA815B
3E508E43
BC4AAD38
3BB8ECF1
B9DEB659
BD00EBCE
3D24720D
BE57E9EF
3D40042F
3CE3F96F
3E160593
3DBA816B
BCCD53FB
3D0D8933
BD6415CC
3E3D8A91
3BBD25E6
3D40E4BF
3D345745
BDE83941
BE10BE2B
BDC35114
BD0E66BB
BDBCD93C
3DD8771C
BD098F48
3E404710
BDF73518
BBEBCBD6
BE58C3DB
3D29C0BE
BD17519E
3BD709A7
3C55CB6E
BBEBB570
BDF0610C
3E4D5181
3C443EDF
BD6A8336
BD521107
BBBA9512
3D35ADB7
3DA7C8CF
BC567AF6
3C19E4E3
BDA06277
BD514852
BD827B9C
BB901724
3E084149
3D94A0A8
BD9DE261
BB9FA02E
3D9E2EDB
3D09065C
3D5DA100
3E09D191
3D7A68A7
BDBB6638
3E0361B8
3BF62C17
3D9C8C11
BCABF450
3DF560D2
3DE4DC5C
3D47A152
3D083BC9
BBCA5AC2
3D9E0103
3D9C3A4F
BDEBB474
BDCD9321
BDAE53BE
BB8A4FBA
BDB78E02
3D4C5AA4
BC8971BE
BD4296D9
3D1B3B35
3D8CB02D
BD740FF2
3D164B33
39A52D4C
3D566895
3DB28E65
BD88C2A8
3C95D9E1
BDDDC2B5
BCC09DFA
BD26D783
3E0A79D0
3B90352C
BB9AAD15
3E00C359
3CD52BA1
3DA54044
3E1121E9
3D8EF31D
BDDB5DE9
3D7FB146
BB09A281
3CC20370
BD52509A
3DF1C2BA
BE090A16
3DF9A875
BDE5062A
3D659AB1
3DB38E81
BD76184D
3CF2EABE
BDF300F8
BD2B9F91
3CDAFF75
BBB110C4
3D1E3DBB
3DFE55A2
BD59A8FC
BD8E8A8F
3DEBD2F1
3D3835E2
3D2E5502
BD57A995
BDFF572D
3DB9F0B6
3DF9AD91
3CD1999B
BD7AF8DD
3DD7AFF4
3DF79F8F
3BB4A4F8
BC0F8188
3D696384
3DC5D4D5
3D953EE4
3DEB4598
3D9FB854
3DEFB1CC
3DEC9134
3E23D842
3DD01E6E
BD6B8C76
3E27B8C2
3DACEF9C
3DE7E3D3
3E1875C2
3D7B7183
3DB23BDB
3E02AB15
BD14ABC6
BCA57A7E
3DE07EAA
3DA74F7A
3E1C1E56
3E3CA88E
3E38BBA1
BD1B4FA2
3CE6E577
3D9B3698
BD11B973
BE168CFF
BD72D58B
3D6EF325
3CAF8C65
39435C36
BC3C4601
BCC90D1A
3E221C9C
3D56B274
BE02B1F4
BD2AC91A
BD5D2184
BDA36FCC
BD73E174
BC7E7DD5
BE2719FA
BE04CDF5
BB99671A
BE18A000
BDE2D799
BD7EA3AF
BBEC09E9
BD207C37
3D45DC9E
3D62854B
3E1CFB39
BE159E16
3B3F3A3D
3E1BC072
BD17EB01
3CB9D224
3A9F0C4A
BD8C4407
3DA96CE9
BD4A3EEB
BCC913EB
BD322E91
3DA94367
BD70F7AF
BAFFA2E3
3DA9ADC4
BC0C2324
3DCB45D7
BE1DC47D
BE170BC4
BD649B32
BDB0159C
BD2D0207
3E12A1E3
BB451A26
3DD770DB
BAA97D3C
BD5CD914
BC8F8A67
BDB01C81
BE12621B
3D764F85
BD9C22F5
BCA9462A
BDE0E205
BD8E676B
3CF21C9D
BDF33BFB
BD8E896B
BDC948F3
3DDDF8B3
3DF3EDEC
BD61C67C
3DDBD244
3E0CA41E
BC9D1DC8
BB35286B
3DEF0CA5
3B985623
3DE0D1F3
BD3386AD
3B5DA334
3DB3F963
3DEA0CD3
3DC9809D
3C490F1D
3DB708A9
3C4E2ABB
BDA3D0DD
BDBCC825
BCC8F3EF
BD284D26
BDA7F555
BD4B6FA0
BDAF7151
BDCA2117
3DA78591
BDC8C39D
3B90C306
BD2C4921
BD81D6AE
3D8BBDC8
BE1235B9
BE03DC4D
3D5AEB05
3D23EB1F
BDEE7645
BDBF21D3
3E0614BA
3D26B315
3DB2911F
3D09C711
BCAE1B41
BC004F3B
3D72DF9E
BDA71D29
BE0D53CF
BD8966D7
3D2776CD
3E0B45BC
3D9759BE
BDBF0C87
BD405DC1
3D72F2D4
BE1A6603
3E0E7F0F
3E1F6E6B
3D8BD8E7
BE0E705F
3D31919D
3E01289B
3DB2F94B
3CC6D2E3
BDAE3239
3D315842
BD99D0B4
3C7753A9
BD98E735
3CD9DAC2
BC834B0E
BE0C1212
3DA2519D
BD9C7630
BC949A87
BE0A6E56
3DD1136A
BC7F27D3
BDCCB0E7
3C5C01F4
3E08BAF0
3CDAEB33
BB49F329
BE118ED7
3D7C0A4A
BD8315B9
BD0E4CDA
3D8317D8
3DE914F6
3E10AA2F
BDDE7741
3DCEA843
3D9FAA29
3AF5E87A
3DDFA420
3D10EC9F
3DC22B4E
3D7CAB3F
3DF643FF
BD7ABD5B
BB9F202C
3D00C7B6
BD539CB5
3DB3DCBF
3D3017D0
3E16D548
3DC5C6CD
3D757DDE
BBF0AEEA
3DE7FAFC
3D897F29
BD368B24
3D19AEE0
3D8D9F88
3E11C6B3
3DE003C5
BCA58987
3CA93599
BAB9AF39
BE10DB6B
BDCCD3EA
BDA3B706
3D9027A2
3C52AAF3
3C35CECF
3DADCFB6
BD63C0F8
BC8DADE3
3DCC761F
BE32FA6A
BDB9108C
3DA19B6A
3D6CB8B0
3DA17182
3E251E20
3D6889DA
3D2228D7
3DB4BF8A
3D2A3CE2
BDB2BF40
BE14879E
BD349F4C
3D8CB8A5
3D8A439B
BDDE17E7
3CF856E9
BCAC5355
BDBC589D
BD0D1590
BCAACA94
BD20423A
BD36C26C
BD926732
3DE75939
BC80EBCE
3DAD5FA2
BCFF44AF
3D358C01
BD543E2B
B8A88194
BDB5881B
BD5352F1
BB1E0031
BC05D623
BDB11105
BDFEFCC8
BD746FE9
BDB48675
3CB0B285
3DF07CAC
3E03F274
BCE334C3
3E0659CB
3D92A819
3DF43344
3D739053
BE1061E7
3BDBC4CD
3BB10216
BD7E3C4B
3D8B0C2B
BD78F346
BCB3C2EB
BE0111F2
BDA16012
3D9D74C1
BDE4B155
BD64869A
BD34D6BF
3D4330EA
3DBC6793
3D4C875A
3D872852
3CF2148A
3D2E564F
BD2564C4
3D63B501
BDFA8778
3CAE004E
BDD16BE7
3D8D4AD4
3D98651F
3B9F9282
BDB743FF
3BC06678
BD047DD6
BDD7B097
BD716A69
BA1613D3
BE0B3162
BE02699D
BC9A6806
BD9A0A5E
BA759395
BD63CA75
3DD03C61
BDDBCBE6
BE09AB70
BDC43304
BE138B06
3C900AE5
3DEAEDBD
3D473A97
3DBCCCBA
BBA5893C
3DA6222D
BD467913
3DC6F2AB
BD39A5A9
3E03CF4D
BD58FD14
3A8895BB
BD238C21
3D0FC092
3E0CEC25
3D963FAC
3D8EC58A
3B5B029B
BB9A5B36
3DB9DE6A
BDBA62E2
BD184D11
BD0C9D42
3D72E924
BDB496A8
3AEDCAC9
BD526D0A
3B97DFF1
3D84F008
3DAD1CCE
BCC05E09
BBD00612
BDB039C9
3DC80D19
3CBFF497
BD266443
3E0DB58D
BDDC8F67
3DAE89E0
BDD9630E
3DD2C8A6
BA17F2FB
BD16C653
3D9AA05B
3A344D7A
3B5AA1A2
3C48C77A
3D209BEA
3D1AA433
3D9CFAF7
3D9F7EC6
BD8F4F96
BD8FBFA6
3DC21FA6
BDB0C903
3E0AE98A
BDDA5828
BD2C81A9
BD816BC0
3D95AF05
3B487C30
BD465366
3D5AD8EF
BD906361
3D544473
BC5E4337
BC5A38FC
3E14A82A
BD96A39C
3DB1CD78
BD9FEFA3
3BB0846D
BD5716FB
3E056181
BD342721
3CD4E575
3CBDFCB0
3CDFDDB1
3C2AEE2B
BDAA0640
BD6ADDE2
3DA39C34
BDB454A7
BCFED8C9
BB414403
BC2D9A58
BCDA92C9
3DC76EB6
BC443D1C
BD7AB13C
BDF3CB42
3E02184B
3DDE28E8
BDF4A3CE
BD8FF092
3E18E41D
BDDC549B
3D67591D
BCEEBE39
3C605469
BCFEA1B1
BBE1BEB7
BD74EE87
BDA2F96C
3C75A487
3DA72B75
BD963878
3C37AA66
BD5EB5DE
3DE99F89
3DAB09DC
3D42A9A3
3DF9F11B
3D437D5E
3DC01CF6
3DB56C04
BD7FB161
3B31C50A
BD42B663
BD49A6E8
3CAF7FE5
3D531B8E
3DA2022A
BDA37548
BC91CB54
3D46FC76
3E101D46
BDBC1F14
3DA54CD3
3D7C0A5F
3DDBE30F
BD1FCE16
BD5B5883
BD99B88C
3D4D402F
BDC79041
3D5C7FE3
3D744717
3DA5F9A0
BE1DB6F8
3DEC4F3A
3D7DA87A
BD922491
3D9152A1
BD6C1674
3D9FBC9C
3CA26317
BDCBABA4
3C8CC10E
BD2F363E
3CF3C08C
3DDC2E5A
3DB9853E
3CA42884
BD54D73A
3D66930A
BDA49EB4
3D9E762A
3DABE158
3CD1793F
3B6A2F5E
3D814A7C
BCC168B0
BC514710
3DC2382A
BD9C2E4B
3D7BF31B
BDE1B3FA
BC055F70
BD032F07
3CEAD12F
3DC011CE
BD0A6412
3D8E857C
3D9B6AEF
3D3C76F9
3DB50219
BE0D048B
3DF67EDC
BD3EBFD7
BCBFE2C9
3A5FAB4C
BCD2F220
3DC11F9C
3CB621D5
3DA000C0
3DC69E4B
BDCC9EFC
3D9721F1
BD5281DD
BCA31EA3
3DB067CA
BD8338A2
3BED82E5
3D98A95B
BDE2FB22
BE0C7B8D
BCAB82B5
3D19F83C
BD688E7F
BDA08651
BD0FCA60
BCE1DF94
BDFA8750
3D509620
3C381499
3DDB8911
3CC2F0E6
3D569A41
3CFAE48D
BD89A7C1
BC264D87
BD59004C
3E278FA6
BDAB3D4A
BDF14822
BCD89F84
BD033BA4
BD6BE72F
3D80D0BF
3DABD8B9
BD493924
BDBE3B03
3B6D2507
3DBE1BB4
BD9123C7
BD9DC39C
3D0FEB1D
3E00CE59
3DAF76C9
BD249744
BDA74431
3D384D21
3D1D93DA
BE073664
3D4BF11A
BD537578
BD2414FB
BD797C93
3CBECD3B
3D575846
3DCDC1CA
3D96D677
BDB104FA
3BD32ED1
3DE4C9D9
3D5C9B4C
BDB7D0BE
3E027B1C
BD204AC6
3D4CEA64
3D585FF3
3DA63ADC
BCB81A43
3D6F6A97
3DDD7BB7
3C93C27A
3DCF8CFE
3DB26238
BCFE0950
BD542B0B
BDC042A6
BDE2D737
BD8FEFF8
3DA1D1BB
BCBD601D
BDC553FA
3BCDA4F9
BD1E4AA6
BDB73236
3D9B4E15
BD514FAE
BD0BBDDE
BB74E9CC
BE1085B8
BD5D9290
3E0C5884
3DBC09B6
BDC8C479
BD654534
3D0F9282
3CFD71C0
3E054B41
BC23E126
BDCFC125
3DE82FAA
3CE960C2
BD4BA5FE
BE11C499
3D2E4C2B
BDC9D149
3D6DD2C1
BD2C36C0
3DEBA2E6
3CB0B3F8
BCFDA1C7
BD48B764
BCE62E42
3D6DB97C
3D52C67C
BBD613F3
3DD8310F
BBA05BC0
BC816B5A
BDD60F3B
BDA29D15
3D742107
BD9C5EB4
BDC4DB9F
3C929DF2
BDA5D5BC
BD46DBDA
3B0E4C89
BDF6AC64
3DC5C967
3CC01889
BC8C9A37
3DA10BD2
BDAED886
BD2A4CAA
3DDF23FE
BDF5FEB3
BD8C8150
BD8C2BA1
BD39A44E
BD9B1261
BD857E86
BDE0F43F
3E1935F7
3E07294D
BDB723FE
3D40ED7B
3DDAF4FC
3D6C99EA
BD430F72
BC09925B
3DFB5939
3D94560A
3E24061C
3DC0D14E
3DB5CE33
3DBE964E
BC990A53
3E11BF4F
BDA9F0C5
BCB394BD
3DD00B7B
3E1B9D27
3D49F946
3E04907E
3DEE6CC5
BBCD7884
3E058A0E
3E2E4E29
3D89701E
3D06FAC1
3C5DD6D6
3D9F527D
3E324E5E
BB32D758
BD626E65
BDB7B951
3E0E514D
BDBCBCD5
BDE87615
BCB3B35B
BE03D430
3CADBCFD
3CF3970C
BDF85815
BCABD784
3E057C6A
3C566009
BD327A7C
BD7399C0
3C67B221
BE226204
3DD45ADD
3D438121
BE3138B7
BE2F2576
3D9701F7
BDA8DA43
BE22B5EE
BE07DBE1
3DEA37B6
3CBCEB2D
BC86E90D
BC190B5F
BD0E08AF
BD7381BD
BC82136B
BD22F896
3D4478C3
3E0510C7
3DB9407D
3C6DC14F
3BE7276C
3BDC38BB
3DE8A3B5
BDF09003
3CE03367
3DD1BD94
BE2757CD
BD19537B
BE0F030A
3E0760F9
3B4C8803
3DA43578
BCF519A2
BB64725B
BD272F09
3DB571A0
3D0523E9
BDB818C0
BDB222E9
3DC90D9B
BC129BC4
3D3604FA
BDB3132F
BD677309
BDA49AE1
3C0CFC5D
3D6EB7EF
3E07E3B3
BD2C6955
3D053905
BD822538
BD43DD45
3E04D27F
BB8AD2C2
3D7723A8
3E08741C
3DC74260
BACE4DAB
3E1FC693
BCEB6C04
BC99704F
3D4C86E4
3E0BEE22
3E43DC2A
3D8B1C4E
3DA45A17
3E2C65C7
3E2780F2
BD557E57
3DCD002A
3E18FA1E
3D598E9C
3E0CD44F
3D5BFAD5
BB41CE6C
BE2DA910
BD87C551
3D9E54DE
3D5240FD
3CCDFF27
BD137E42
BE0E056F
3DF6206A
3DE5ABFB
BD14C4E6
3C62AB10
3DFFCCED
3D3B1ACE
BD7878F5
BCC6D460
BD974650
BDEE9BD2
BCDD7D24
BBDAFA0C
BB14E225
BD676B0B
3D080EB7
3E1EC14F
BE094F53
3D28F143
BCDCF9C1
BD75144C
BDD4FB73
3E488C07
3E27E14F
3D5A7DA5
BD981A0B
3DE80C20
3C33E7F9
3E10ED06
3DA73B0C
3C928B48
3E5B12FC
BDCE4C44
BC464717
BDCAFE75
3C06E501
3A32CFA1
BDCC7796
BCFF19EC
BE1A0A0A
3E014F47
3D5B670F
3DA96CAA
BCE4D03F
3E0362CE
BBF04F73
3DFC5132
BD7A94C1
BC88C9A3
BDFF0B07
BDAA623C
3D7EF472
BE413486
BE29AD8A
BD19D2BA
3E0579CD
3C7EF9E6
BD4E3397
3DB84D0E
BDA82589
3DCE26B0
3E0F081A
3D95E225
BD8AFD20
BC5544EB
3D0A9FD9
3E06779E
3DB9955D
BD616642
3DD4EB81
3E1D5D6E
BD8A1AB6
3DC35859
3DB135A0
BD5BB1DA
3E078AD1
3E062549
3D4D97DB
3E089A8A
3D867FE9
BD8A90C1
BDE2BA96
3D2B9E21
BDACCA9A
BDF9A0BE
BC9FB8D8
BCE2AAF0
BE17E4FC
3DB41387
3DC33D4B
3DD603D9
BDA36668
BD8BD2A7
3D85F071
3DC71451
3D057CDF
BCAA1C03
BD6C44E0
BDC135D1
3D4DF571
BDBD326E
BD5F6426
3E02AA30
3D6AE950
BCEF5BD3
3CDB925D
BDE84E91
3D26A55B
3D5856F1
3CB94267
3D36FC89
BAD8D7C8
3D15E5DE
BB2F0B1B
3D9E5B5A
3D05FA93
BD90EBFB
3C70C3F8
3DAE0BFF
3DEB54D4
BDF442C7
BD93C9C7
3CDB1311
BDC111AC
38B3EA28
3DCC94C8
BDB5F304
3DAEBC0A
3D0EC789
BDE3F00C
3DCEBD98
3DC1C75D
BDAFCF57
3CA69388
3DAB8975
BDECCA26
3D2AB426
BE0B6317
3D838BD1
BD76C05B
3C1C8A85
BCBC9F58
BC9DAD4A
3D7160FE
3DD2CCCD
3A94F94C
3DF82087
BDF1DB59
BD9F7D4A

