BCD89476
3E1621C9
3D8DA0E8
3B543DDA
BCB44750
BD562BC1
3CC31020
3CA40020
BCAA1CDF
BE1BF83E
BC41C592
BDB269B5
3E45B3A8
3DB83015
3D65396B
3C3EC8C8
3E2E2CAC
3E84FC6B
3E07A532
BCEBABC0
3D985C17
BD87A375
3C0F435F
BDE32E8B
3E286527
3E438D3C
BC934D2A
BDA0757E
3D3E0DC5
BD92117F
3DC5BEC0
3D2845F5
3E1B3B36
3E52EDDC
BBE28F41
3E366498
3D83E729
3E1FBFB6
B9F3FCE7
BD91128A
BDCF386E
3DBE1D1B
3D768F6C
3E61A95B
BCA1F822
3E307735
3D8C4F15
3C830F29
BDB836A4
3AEFA138
BD402F30
BE22C515
3E487F1C
3DB74456
BE2A7FE9
BD5A11D4
3DBDA3CA
3E24D526
3E4554AD
3CF4B376
3DDEEE2D
3DBA4417
3DBFC0C0
BD57D551

